<0x00> 1
<0x01> 1
<0x02> 1
<0x03> 1
<0x04> 1
<0x05> 1
<0x06> 1
<0x07> 1
<0x08> 1
<0x09> 1
<0x0A> 1
<0x0B> 1
<0x0C> 1
<0x0D> 1
<0x0E> 1
<0x0F> 1
<0x10> 1
<0x11> 1
<0x12> 1
<0x13> 1
<0x14> 1
<0x15> 1
<0x16> 1
<0x17> 1
<0x18> 1
<0x19> 1
<0x1A> 1
<0x1B> 1
<0x1C> 1
<0x1D> 1
<0x1E> 1
<0x1F> 1
<0x20> 1
<0x21> 1
<0x22> 1
<0x23> 1
<0x24> 1
<0x25> 1
<0x26> 1
<0x27> 1
<0x28> 1
<0x29> 1
<0x2A> 1
<0x2B> 1
<0x2C> 1
<0x2D> 1
<0x2E> 1
<0x2F> 1
<0x30> 1
<0x31> 1
<0x32> 1
<0x33> 1
<0x34> 1
<0x35> 1
<0x36> 1
<0x37> 1
<0x38> 1
<0x39> 1
<0x3A> 1
<0x3B> 1
<0x3C> 1
<0x3D> 1
<0x3E> 1
<0x3F> 1
<0x40> 1
<0x41> 1
<0x42> 1
<0x43> 1
<0x44> 1
<0x45> 1
<0x46> 1
<0x47> 1
<0x48> 1
<0x49> 1
<0x4A> 1
<0x4B> 1
<0x4C> 1
<0x4D> 1
<0x4E> 1
<0x4F> 1
<0x50> 1
<0x51> 1
<0x52> 1
<0x53> 1
<0x54> 1
<0x55> 1
<0x56> 1
<0x57> 1
<0x58> 1
<0x59> 1
<0x5A> 1
<0x5B> 1
<0x5C> 1
<0x5D> 1
<0x5E> 1
<0x5F> 1
<0x60> 1
<0x61> 1
<0x62> 1
<0x63> 1
<0x64> 1
<0x65> 1
<0x66> 1
<0x67> 1
<0x68> 1
<0x69> 1
<0x6A> 1
<0x6B> 1
<0x6C> 1
<0x6D> 1
<0x6E> 1
<0x6F> 1
<0x70> 1
<0x71> 1
<0x72> 1
<0x73> 1
<0x74> 1
<0x75> 1
<0x76> 1
<0x77> 1
<0x78> 1
<0x79> 1
<0x7A> 1
<0x7B> 1
<0x7C> 1
<0x7D> 1
<0x7E> 1
<0x7F> 1
<0x80> 1
<0x81> 1
<0x82> 1
<0x83> 1
<0x84> 1
<0x85> 1
<0x86> 1
<0x87> 1
<0x88> 1
<0x89> 1
<0x8A> 1
<0x8B> 1
<0x8C> 1
<0x8D> 1
<0x8E> 1
<0x8F> 1
<0x90> 1
<0x91> 1
<0x92> 1
<0x93> 1
<0x94> 1
<0x95> 1
<0x96> 1
<0x97> 1
<0x98> 1
<0x99> 1
<0x9A> 1
<0x9B> 1
<0x9C> 1
<0x9D> 1
<0x9E> 1
<0x9F> 1
<0xA0> 1
<0xA1> 1
<0xA2> 1
<0xA3> 1
<0xA4> 1
<0xA5> 1
<0xA6> 1
<0xA7> 1
<0xA8> 1
<0xA9> 1
<0xAA> 1
<0xAB> 1
<0xAC> 1
<0xAD> 1
<0xAE> 1
<0xAF> 1
<0xB0> 1
<0xB1> 1
<0xB2> 1
<0xB3> 1
<0xB4> 1
<0xB5> 1
<0xB6> 1
<0xB7> 1
<0xB8> 1
<0xB9> 1
<0xBA> 1
<0xBB> 1
<0xBC> 1
<0xBD> 1
<0xBE> 1
<0xBF> 1
<0xC0> 1
<0xC1> 1
<0xC2> 1
<0xC3> 1
<0xC4> 1
<0xC5> 1
<0xC6> 1
<0xC7> 1
<0xC8> 1
<0xC9> 1
<0xCA> 1
<0xCB> 1
<0xCC> 1
<0xCD> 1
<0xCE> 1
<0xCF> 1
<0xD0> 1
<0xD1> 1
<0xD2> 1
<0xD3> 1
<0xD4> 1
<0xD5> 1
<0xD6> 1
<0xD7> 1
<0xD8> 1
<0xD9> 1
<0xDA> 1
<0xDB> 1
<0xDC> 1
<0xDD> 1
<0xDE> 1
<0xDF> 1
<0xE0> 1
<0xE1> 1
<0xE2> 1
<0xE3> 1
<0xE4> 1
<0xE5> 1
<0xE6> 1
<0xE7> 1
<0xE8> 1
<0xE9> 1
<0xEA> 1
<0xEB> 1
<0xEC> 1
<0xED> 1
<0xEE> 1
<0xEF> 1
<0xF0> 1
<0xF1> 1
<0xF2> 1
<0xF3> 1
<0xF4> 1
<0xF5> 1
<0xF6> 1
<0xF7> 1
<0xF8> 1
<0xF9> 1
<0xFA> 1
<0xFB> 1
<0xFC> 1
<0xFD> 1
<0xFE> 1
<0xFF> 1
▁▁ 1
▁t 1
er 1
in 1
▁a 1
en 1
on 1
▁th 1
es 1
▁▁▁▁ 1
▁s 1
▁d 1
at 1
or 1
an 1
▁c 1
is 1
re 1
it 1
▁the 1
ar 1
le 1
▁w 1
▁p 1
ou 1
al 1
▁f 1
▁m 1
ed 1
▁o 1
▁b 1
om 1
ion 1
ing 1
ic 1
as 1
el 1
ent 1
▁in 1
▁h 1
nd 1
et 1
▁l 1
▁n 1
st 1
▁to 1
ch 1
▁I 1
ro 1
▁▁▁▁▁▁▁▁ 1
il 1
▁of 1
de 1
ct 1
▁( 1
am 1
▁C 1
▁de 1
▁S 1
▁u 1
▁A 1
▁\ 1
▁e 1
▁and 1
▁T 1
ol 1
▁v 1
im 1
ot 1
ad 1
ut 1
▁g 1
em 1
ur 1
id 1
▁* 1
ig 1
ra 1
▁re 1
▁is 1
qu 1
ow 1
▁M 1
est 1
▁y 1
se 1
ve 1
ce 1
ie 1
un 1
▁P 1
▁B 1
ag 1
ul 1
▁= 1
he 1
end 1
ode 1
ter 1
ment 1
os 1
▁D 1
if 1
ation 1
▁for 1
▁r 1
▁L 1
▁you 1
▁be 1
ly 1
ver 1
ab 1
te 1
▁it 1
▁on 1
ri 1
us 1
▁" 1
▁wh 1
▁con 1
▁H 1
▁st 1
ir 1
▁E 1
▁F 1
ck 1
▁an 1
th 1
eg 1
ay 1
ith 1
▁R 1
ist 1
and 1
▁that 1
▁al 1
▁$ 1
▁# 1
od 1
um 1
▁W 1
ht 1
code 1
▁G 1
ate 1
ess 1
▁N 1
ere 1
pp 1
▁as 1
▁se 1
▁pro 1
▁with 1
pe 1
▁k 1
ers 1
pt 1
); 1
lo 1
▁▁▁▁▁ 1
▁com 1
ame 1
▁` 1
▁Com 1
ia 1
ant 1
▁la 1
▁{ 1
▁en 1
ction 1
▁ex 1
ld 1
ub 1
▁j 1
la 1
ue 1
▁J 1
ich 1
▁do 1
▁O 1
▁qu 1
iv 1
ort 1
art 1
▁un 1
▁## 1
▁this 1
ke 1
▁ha 1
▁- 1
out 1
▁The 1
▁not 1
▁ne 1
ill 1
▁le 1
ci 1
rom 1
ine 1
// 1
op 1
egin 1
▁Comment 1
▁▁▁▁▁▁▁▁▁▁▁▁▁▁▁▁ 1
begin 1
ст 1
ass 1
iz 1
). 1
og 1
▁п 1
▁or 1
▁was 1
▁at 1
our 1
▁i 1
ain 1
▁K 1
на 1
▁V 1
ge 1
▁su 1
ap 1
age 1
ould 1
ne 1
av 1
xt 1
ore 1
ile 1
-- 1
▁в 1
▁by 1
li 1
ath 1
ра 1
ber 1
ach 1
all 1
▁Th 1
ult 1
▁} 1
▁U 1
▁us 1
▁z 1
ust 1
▁have 1
lic 1
ни 1
▁can 1
tr 1
com 1
), 1
▁In 1
ind 1
ell 1
▁from 1
ов 1
to 1
▁[ 1
able 1
ost 1
▁ch 1
ect 1
ight 1
int 1
▁' 1
▁are 1
▁im 1
▁sh 1
▁< 1
▁An 1
▁с 1
ata 1
ire 1
▁tr 1
con 1
ord 1
ity 1
ard 1
▁▁▁▁▁▁ 1
▁he 1
▁but 1
oc 1
=" 1
▁pr 1
ure 1
per 1
ack 1
ork 1
ong 1
ans 1
ко 1
ple 1
▁des 1
ok 1
orm 1
wer 1
ak 1
pr 1
ase 1
▁el 1
ph 1
ac 1
▁und 1
▁ar 1
▁if 1
ud 1
ps 1
ite 1
ble 1
но 1
fer 1
pl 1
ive 1
ang 1
ens 1
ро 1
▁so 1
so 1
ast 1
() 1
swer 1
ru 1
ies 1
▁: 1
au 1
ov 1
ре 1
го 1
▁der 1
▁my 1
▁we 1
▁me 1
nt 1
▁ad 1
urn 1
▁your 1
:// 1
are 1
▁all 1
ff 1
io 1
estion 1
ime 1
▁er 1
lass 1
▁и 1
▁which 1
ome 1
ont 1
▁par 1
▁ma 1
▁Y 1
", 1
▁о 1
ft 1
ial 1
cc 1
ound 1
▁li 1
▁res 1
eth 1
ject 1
▁app 1
▁St 1
ice 1
▁am 1
act 1
▁del 1
gr 1
ated 1
ier 1
▁▁▁▁▁▁▁▁▁▁▁▁ 1
▁ab 1
▁et 1
ally 1
.. 1
port 1
ik 1
▁per 1
▁cont 1
ри 1
ка 1
ser 1
ли 1
ll 1
iew 1
ign 1
_{ 1
put 1
one 1
unction 1
▁di 1
ary 1
ition 1
ma 1
ен 1
get 1
▁lo 1
▁val 1
▁Q 1
ran 1
▁д 1
ence 1
▁work 1
▁на 1
ip 1
item 1
ype 1
▁& 1
▁his 1
▁use 1
der 1
▁Answer 1
▁will 1
ize 1
та 1
low 1
▁Ch 1
▁get 1
ide 1
ous 1
ink 1
ption 1
ла 1
turn 1
ung 1
ec 1
ug 1
form 1
res 1
htt 1
oug 1
ль 1
▁no 1
cl 1
▁ro 1
▁one 1
tt 1
cri 1
du 1
▁up 1
то 1
(" 1
▁ob 1
we 1
ory 1
▁est 1
ery 1
iel 1
str 1
ob 1
▁que 1
ian 1
▁out 1
▁pl 1
▁new 1
ки 1
▁+ 1
ry 1
oth 1
ther 1
▁var 1
▁would 1
▁ser 1
tern 1
text 1
▁there 1
ish 1
ror 1
те 1
▁set 1
▁@ 1
▁по 1
▁te 1
ex 1
▁return 1
ail 1
▁any 1
▁It 1
▁function 1
{\ 1
', 1
és 1
ale 1
ан 1
▁when 1
ib 1
▁go 1
ance 1
▁had 1
▁Qu 1
▁comp 1
ле 1
▁з 1
math 1
▁has 1
▁м 1
▁pre 1
ener 1
▁part 1
elf 1
▁die 1
▁like 1
ray 1
irst 1
▁dis 1
▁man 1
rit 1
▁then 1
▁class 1
pro 1
▁po 1
▁using 1
eb 1
▁code 1
own 1
▁some 1
ces 1
▁$\ 1
ер 1
lect 1
▁au 1
isch 1
▁col 1
▁– 1
up 1
ons 1
▁add 1
ild 1
iss 1
val 1
ount 1
les 1
vent 1
▁▁▁▁▁▁▁▁▁▁▁▁▁ 1
▁Z 1
In 1
row 1
ear 1
ations 1
ah 1
que 1
ublic 1
ank 1
▁sp 1
▁Wh 1
---- 1
sk 1
ew 1
ags 1
ти 1
ann 1
▁— 1
ert 1
ace 1
sch 1
▁need 1
▁à 1
ien 1
ough 1
не 1
▁def 1
ij 1
ern 1
▁what 1
▁Ar 1
wo 1
ml 1
</ 1
▁Re 1
▁es 1
▁inst 1
bo 1
az 1
▁### 1
▁б 1
erm 1
▁Al 1
led 1
да 1
ten 1
set 1
ло 1
▁comm 1
sh 1
ва 1
▁/ 1
▁data 1
▁// 1
]( 1
▁str 1
ose 1
▁Un 1
ven 1
St 1
... 1
▁С 1
yst 1
▁« 1
ick 1
ix 1
par 1
▁у 1
▁want 1
ng 1
ote 1
▁gr 1
▁du 1
▁. 1
und 1
▁only 1
▁sa 1
ely 1
vers 1
▁ent 1
)) 1
(' 1
▁mod 1
ava 1
ton 1
▁should 1
ement 1
▁form 1
▁also 1
▁sc 1
ings 1
▁You 1
ón 1
▁kn 1
(); 1
▁| 1
▁were 1
ss 1
▁Question 1
ise 1
▁they 1
▁De 1
ond 1
▁sol 1
▁fol 1
▁more 1
▁her 1
▁_ 1
▁é 1
atch 1
fter 1
▁cre 1
lock 1
tring 1
▁This 1
ze 1
ado 1
ull 1
ger 1
be 1
▁other 1
▁Tags 1
ution 1
ict 1
▁how 1
▁x 1
▁Se 1
▁che 1
cript 1
▁just 1
▁pos 1
ange 1
ific 1
ree 1
}} 1
▁time 1
app 1
ны 1
▁file 1
ark 1
ical 1
▁first 1
▁int 1
▁В 1
▁He 1
ta 1
ument 1
ors 1
lement 1
rac 1
▁ag 1
▁does 1
yn 1
read 1
ual 1
▁Le 1
ys 1
▁em 1
▁num 1
vel 1
ди 1
over 1
▁dif 1
ethod 1
▁If 1
▁spe 1
ym 1
▁them 1
▁into 1
▁▁▁▁▁▁▁▁▁▁ 1
▁les 1
▁its 1
ese 1
ield 1
▁public 1
▁П 1
▁den 1
ystem 1
of 1
▁over 1
-> 1
▁fil 1
name 1
inal 1
▁il 1
ample 1
▁way 1
ica 1
во 1
cess 1
itt 1
uch 1
▁where 1
ми 1
org 1
https 1
▁vo 1
ient 1
ove 1
▁value 1
eng 1
▁La 1
^{ 1
ref 1
ied 1
ER 1
▁stat 1
fig 1
me 1
▁von 1
▁inter 1
roid 1
ater 1
▁their 1
▁bet 1
▁ein 1
}\ 1
"> 1
▁sub 1
▁op 1
▁don 1
ty 1
▁try 1
▁Pro 1
▁tra 1
▁same 1
ep 1
▁two 1
▁name 1
old 1
let 1
▁sim 1
sp 1
▁av 1
bre 1
blem 1
ey 1
▁could 1
▁cor 1
▁acc 1
ays 1
cre 1
urr 1
si 1
▁const 1
ues 1
}$ 1
View 1
▁act 1
▁bo 1
▁ко 1
▁som 1
▁about 1
land 1
mer 1
▁list 1
cal 1
▁import 1
col 1
▁na 1
na 1
:: 1
▁who 1
▁error 1
▁X 1
ator 1
ext 1
▁been 1
ér 1
▁run 1
pos 1
▁cl 1
** 1
▁К 1
ular 1
ause 1
▁reg 1
▁know 1
▁see 1
▁him 1
ning 1
▁за 1
ates 1
fore 1
ions 1
▁hel 1
ute 1
▁rem 1
▁го 1
▁Mar 1
ру 1
vice 1
irect 1
ner 1
▁under 1
rib 1
hr 1
че 1
▁As 1
▁end 1
ember 1
▁а 1
▁att 1
ina 1
son 1
▁follow 1
▁Sch 1
pect 1
▁rel 1
▁So 1
▁look 1
abel 1
▁problem 1
▁van 1
strong 1
co 1
pon 1
ca 1
ada 1
": 1
cond 1
amb 1
}, 1
quest 1
▁aut 1
▁result 1
▁may 1
Re 1
http 1
): 1
▁And 1
red 1
▁How 1
po 1
ско 1
att 1
oup 1
ced 1
▁type 1
▁than 1
▁cons 1
uf 1
ци 1
▁question 1
raph 1
igh 1
▁М 1
▁htt 1
ins 1
den 1
▁da 1
▁ver 1
oh 1
▁=> 1
riv 1
ude 1
▁For 1
▁ra 1
frac 1
ма 1
▁after 1
}{ 1
▁method 1
") 1
amp 1
ash 1
▁rec 1
▁differ 1
ON 1
ax 1
ament 1
ource 1
Con 1
its 1
Name 1
man 1
▁bec 1
che 1
▁En 1
aj 1
▁gener 1
IN 1
▁id 1
ages 1
▁loc 1
fo 1
br 1
▁she 1
Pro 1
▁una 1
▁к 1
eta 1
log 1
olog 1
▁sur 1
arg 1
▁-- 1
kt 1
(\ 1
min 1
▁line 1
▁vari 1
ся 1
ics 1
ня 1
very 1
add 1
▁object 1
Id 1
▁But 1
▁case 1
▁make 1
▁cal 1
▁pass 1
сь 1
ession 1
net 1
." 1
▁г 1
är 1
де 1
no 1
ating 1
ato 1
line 1
ви 1
▁Ex 1
▁ass 1
▁vers 1
ля 1
▁ed 1
umn 1
other 1
ста 1
ative 1
String 1
▁los 1
wn 1
▁answer 1
▁let 1
▁pe 1
ents 1
▁fe 1
ince 1
ni 1
ider 1
ows 1
▁test 1
▁here 1
roll 1
▁call 1
ruct 1
▁pol 1
ait 1
▁back 1
ho 1
Ex 1
ress 1
ST 1
ried 1
date 1
ет 1
▁did 1
ting 1
▁El 1
▁dem 1
)$ 1
ова 1
urrent 1
lace 1
right 1
ren 1
по 1
▁each 1
cy 1
block 1
data 1
▁% 1
▁ac 1
▁== 1
ür 1
▁por 1
ask 1
arch 1
ames 1
▁Con 1
ча 1
▁off 1
▁find 1
cont 1
▁now 1
work 1
ational 1
dd 1
ción 1
▁А 1
ault 1
List 1
▁ext 1
urs 1
ake 1
ule 1
▁point 1
AT 1
aut 1
▁trans 1
▁co 1
▁read 1
▁used 1
ски 1
ari 1
LE 1
eter 1
oun 1
ever 1
self 1
ined 1
idth 1
ux 1
js 1
▁such 1
▁Is 1
ée 1
ful 1
▁dist 1
▁bu 1
itemize 1
Cont 1
je 1
си 1
▁prov 1
bb 1
ward 1
esent 1
erson 1
anks 1
wh 1
not 1
▁We 1
ka 1
rop 1
atur 1
als 1
▁bel 1
ör 1
fr 1
▁example 1
▁incl 1
amil 1
▁ра 1
▁“ 1
▁string 1
▁think 1
Th 1
▁tem 1
ave 1
▁Fran 1
▁number 1
▁si 1
imes 1
tem 1
my 1
ler 1
load 1
== 1
▁hand 1
za 1
▁because 1
▁sch 1
vo 1
this 1
ID 1
ão 1
▁start 1
▁war 1
▁help 1
ts 1
▁char 1
▁ph 1
▁min 1
til 1
rite 1
-------- 1
els 1
▁mit 1
edia 1
ку 1
▁Sh 1
any 1
]; 1
▁Б 1
ique 1
da 1
ef 1
dex 1
▁produ 1
▁Н 1
gram 1
▁Or 1
▁gre 1
quote 1
leg 1
orn 1
▁ind 1
▁post 1
▁dep 1
], 1
vi 1
▁user 1
▁> 1
lick 1
▁very 1
ething 1
▁array 1
▁gu 1
▁dur 1
`. 1
ть 1
lication 1
сти 1
ek 1
ico 1
▁dat 1
ор 1
html 1
ione 1
▁different 1
▁check 1
▁fr 1
▁Er 1
▁text 1
ні 1
icht 1
stack 1
EN 1
rag 1
▁every 1
Ar 1
▁before 1
alse 1
▁fin 1
▁dé 1
▁these 1
▁det 1
Val 1
ception 1
▁android 1
blockquote 1
▁je 1
file 1
ats 1
▁до 1
essage 1
▁again 1
aw 1
Ch 1
ween 1
▁Д 1
for 1
cial 1
play 1
pre 1
ida 1
▁Par 1
ny 1
ract 1
▁supp 1
ased 1
lection 1
▁dans 1
air 1
rol 1
▁thr 1
Data 1
lich 1
▁про 1
▁long 1
▁second 1
ually 1
ines 1
▁found 1
ength 1
yp 1
ead 1
▁log 1
ui 1
new 1
▁Р 1
go 1
aus 1
ody 1
▁son 1
ме 1
ero 1
ved 1
sub 1
▁right 1
view 1
▁following 1
') 1
"); 1
▁said 1
же 1
чи 1
ту 1
ott 1
се 1
ars 1
$. 1
gg 1
▁br 1
ool 1
yle 1
use 1
▁show 1
lease 1
cia 1
▁direct 1
doc 1
ар 1
ms 1
▁giv 1
▁exp 1
ql 1
ду 1
ве 1
▁Be 1
Com 1
iter 1
RE 1
mp 1
men 1
▁Ro 1
MA 1
▁Col 1
ister 1
▁well 1
▁</ 1
ayout 1
ature 1
ivers 1
zy 1
▁не 1
▁met 1
une 1
yth 1
Type 1
▁element 1
▁link 1
mod 1
▁between 1
cept 1
quire 1
▁through 1
▁while 1
▁On 1
the 1
ía 1
▁something 1
vol 1
▁most 1
sc 1
uss 1
▁car 1
▁sm 1
▁ро 1
ano 1
left 1
va 1
▁true 1
($ 1
ems 1
▁much 1
ás 1
▁New 1
▁proper 1
era 1
ited 1
▁doc 1
ices 1
The 1
▁? 1
сто 1
fl 1
▁spec 1
ender 1
way 1
▁self 1
▁even 1
ів 1
▁се 1
ния 1
▁Pr 1
▁ke 1
emb 1
▁table 1
▁equ 1
lient 1
td 1
part 1
▁print 1
▁une 1
ify 1
▁-> 1
ene 1
▁mon 1
▁dec 1
▁still 1
▁об 1
▁Tr 1
▁ф 1
ife 1
ism 1
by 1
raw 1
ior 1
▁med 1
orld 1
▁comple 1
ww 1
▁art 1
ron 1
▁Г 1
▁My 1
▁als 1
rect 1
▁auf 1
▁down 1
ather 1
Col 1
Text 1
back 1
$, 1
▁year 1
мо 1
pi 1
▁Gr 1
ream 1
▁rep 1
bf 1
www 1
▁wur 1
▁org 1
inter 1
▁Die 1
▁being 1
". 1
label 1
▁cent 1
java 1
bar 1
ante 1
ana 1
__ 1
▁solution 1
▁О 1
▁fl 1
▁create 1
ici 1
ste 1
ython 1
unt 1
ason 1
ference 1
SE 1
▁non 1
ane 1
▁ins 1
ader 1
_{\ 1
Res 1
▁main 1
пи 1
▁▁▁▁▁▁▁▁▁▁▁▁▁▁ 1
▁There 1
▁pour 1
RO 1
`, 1
lish 1
bject 1
ccess 1
▁orig 1
▁▁▁ 1
ischen 1
ower 1
▁het 1
uc 1
▁else 1
». 1
▁от 1
equ 1
sible 1
test 1
stand 1
én 1
ets 1
GE 1
ident 1
▁е 1
▁при 1
., 1
▁das 1
ock 1
," 1
▁vol 1
▁fo 1
▁para 1
▁Т 1
▁Car 1
ral 1
▁Sp 1
var 1
▁play 1
ouse 1
▁та 1
ically 1
▁contain 1
ponse 1
▁String 1
án 1
▁both 1
ken 1
AR 1
ере 1
▁Il 1
▁iss 1
▁open 1
▁) 1
▁What 1
fe 1
rivate 1
reg 1
▁without 1
▁zu 1
vis 1
flow 1
▁http 1
abase 1
▁word 1
▁change 1
▁works 1
▁ge 1
▁! 1
▁een 1
itle 1
▁event 1
word 1
ando 1
SB 1
rem 1
▁field 1
ving 1
Ser 1
▁our 1
▁qui 1
▁oper 1
▁ist 1
def 1
▁made 1
ние 1
px 1
▁men 1
rm 1
ais 1
cent 1
list 1
To 1
▁To 1
ja 1
vert 1
▁mar 1
value 1
▁„ 1
"; 1
▁aus 1
▁Br 1
ole 1
▁mult 1
ought 1
▁mat 1
▁view 1
fil 1
▁со 1
га 1
▁void 1
▁good 1
бо 1
CT 1
▁many 1
ben 1
▁во 1
▁ка 1
▁system 1
ino 1
▁another 1
▁rest 1
user 1
ility 1
ai 1
▁might 1
ustom 1
▁order 1
▁Ver 1
SS 1
}) 1
▁eff 1
до 1
ett 1
▁sign 1
му 1
IT 1
string 1
elle 1
▁sing 1
cul 1
▁trying 1
▁beg 1
▁page 1
хо 1
▁Can 1
▁Ser 1
++ 1
▁must 1
▁values 1
▁key 1
ible 1
]. 1
ird 1
▁program 1
roller 1
▁conne 1
▁say 1
▁param 1
ache 1
velop 1
▁select 1
▁famil 1
▁last 1
▁Thanks 1
▁pop 1
}. 1
eq 1
▁doesn 1
[' 1
▁term 1
▁ré 1
▁document 1
па 1
лу 1
ateg 1
.) 1
ling 1
ional 1
ables 1
▁tak 1
utton 1
▁arg 1
type 1
▁sure 1
▁real 1
▁web 1
▁current 1
▁Pl 1
cho 1
ments 1
▁Joh 1
ots 1
▁exist 1
ну 1
▁für 1
▁из 1
do 1
ного 1
▁las 1
▁null 1
▁inform 1
▁Л 1
▁version 1
▁chang 1
ager 1
▁Comm 1
лі 1
ush 1
▁Ge 1
▁high 1
▁input 1
ogle 1
ros 1
box 1
gen 1
▁ste 1
▁local 1
Im 1
▁process 1
ternal 1
ized 1
ги 1
ét 1
▁Ind 1
▁och 1
lt 1
▁column 1
▁tried 1
▁command 1
▁best 1
aster 1
за 1
▁prim 1
▁model 1
▁і 1
▁those 1
ities 1
ère 1
▁ре 1
је 1
ши 1
ques 1
▁Am 1
▁own 1
lin 1
зи 1
Value 1
thing 1
▁, 1
▁Te 1
▁stud 1
▁um 1
▁server 1
ille 1
▁put 1
ativ 1
gy 1
ови 1
raf 1
ово 1
▁wurde 1
▁When 1
▁div 1
ants 1
▁ter 1
▁partic 1
▁т 1
▁Do 1
▁No 1
sert 1
ido 1
mathcal 1
ade 1
▁II 1
lear 1
ograph 1
ense 1
▁row 1
num 1
▁possible 1
▁since 1
▁Bo 1
ctions 1
▁Im 1
OR 1
ці 1
▁ide 1
map 1
▁correct 1
ves 1
php 1
▁output 1
▁Ph 1
AL 1
ared 1
\\ 1
▁image 1
esch 1
жи 1
▁conf 1
por 1
query 1
ures 1
ium 1
ends 1
▁Ab 1
SBN 1
ід 1
ether 1
ptions 1
itu 1
lib 1
ns 1
ki 1
▁working 1
▁como 1
▁Then 1
ML 1
key 1
class 1
ople 1
ittle 1
▁match 1
ways 1
mathbb 1
▁require 1
alt 1
▁vis 1
▁bl 1
▁called 1
Item 1
ura 1
vec 1
eme 1
▁della 1
embre 1
urg 1
Se 1
▁request 1
ische 1
▁port 1
▁instead 1
=\ 1
▁У 1
hor 1
ente 1
ume 1
erd 1
са 1
▁why 1
rist 1
▁person 1
▁... 1
▁private 1
▁tot 1
pha 1
ift 1
ita 1
loc 1
▁old 1
он 1
▁nel 1
'] 1
ti 1
iet 1
cite 1
plement 1
▁above 1
ks 1
ready 1
▁come 1
section 1
▁Pol 1
▁writ 1
▁https 1
▁$$ 1
▁» 1
▁build 1
ito 1
▁consider 1
aft 1
App 1
,\ 1
indows 1
comm 1
▁; 1
ground 1
▁place 1
By 1
▁project 1
Object 1
▁repr 1
ences 1
indow 1
zt 1
▁files 1
cz 1
ivity 1
▁init 1
▁prob 1
▁sk 1
orth 1
iment 1
ouble 1
atal 1
irc 1
▁è 1
▁bre 1
ista 1
input 1
▁И 1
ной 1
sum 1
path 1
▁cour 1
▁too 1
▁Ad 1
▁Gu 1
▁false 1
▁fun 1
▁ст 1
ood 1
ès 1
▁enc 1
bol 1
rl 1
arget 1
order 1
▁mean 1
пе 1
igen 1
▁пре 1
width 1
<unk2> 1
itor 1
▁state 1
▁great 1
enn 1
bin 1
Er 1
Mod 1
oz 1
▁won 1
▁fact 1
▁java 1
▁Univers 1
▁cap 1
istor 1
}( 1
ku 1
ither 1
ales 1
▁ou 1
ross 1
▁take 1
rix 1
lob 1
▁eine 1
ases 1
▁access 1
ité 1
istr 1
ization 1
▁appro 1
ball 1
▁mak 1
}^ 1
▁Cons 1
press 1
serv 1
(). 1
af 1
▁ref 1
)\ 1
▁contin 1
su 1
iver 1
▁cond 1
▁expect 1
▁charact 1
bert 1
elt 1
ters 1
script 1
▁Ed 1
apt 1
'); 1
print 1
▁size 1
▁sich 1
face 1
enden 1
▁Amer 1
ified 1
ów 1
▁Su 1
tes 1
med 1
▁Reg 1
sole 1
▁includ 1
ini 1
inci 1
▁pla 1
▁left 1
df 1
Par 1
▁All 1
▁occ 1
▁At 1
▁cr 1
Qu 1
▁given 1
▁System 1
ican 1
▁final 1
itions 1
▁бы 1
▁perform 1
AN 1
▁Me 1
uro 1
▁That 1
гра 1
▁По 1
▁ви 1
ably 1
▁present 1
duct 1
ric 1
▁Eng 1
try 1
▁lar 1
bl 1
idd 1
▁är 1
ora 1
LL 1
oss 1
▁ISBN 1
▁three 1
jo 1
ní 1
rc 1
▁far 1
▁Not 1
▁little 1
dis 1
ati 1
function 1
▁able 1
less 1
со 1
▁path 1
▁pres 1
lose 1
PI 1
▁issue 1
ackage 1
time 1
ige 1
ams 1
▁Cl 1
ails 1
alk 1
ii 1
ше 1
pen 1
QL 1
▁eas 1
RL 1
cel 1
▁sl 1
▁ask 1
▁nom 1
▁top 1
ides 1
index 1
ém 1
▁happ 1
ox 1
cd 1
▁better 1
▁load 1
ados 1
zen 1
▁ce 1
▁fa 1
▁John 1
IMA 1
▁Bar 1
overflow 1
▁де 1
ness 1
cer 1
▁Here 1
ret 1
▁sz 1
ambda 1
opy 1
url 1
py 1
rt 1
▁understand 1
ał 1
her 1
## 1
▁child 1
▁exec 1
▁application 1
▁struct 1
▁я 1
File 1
▁cert 1
ison 1
▁variable 1
DE 1
rs 1
▁really 1
Port 1
ba 1
▁Ber 1
▁inte 1
▁static 1
▁config 1
▁She 1
estions 1
▁plus 1
▁hab 1
ope 1
▁mus 1
▁count 1
ME 1
▁support 1
▁people 1
▁beh 1
▁already 1
Tr 1
▁done 1
dem 1
size 1
alpha 1
▁disc 1
]) 1
▁Man 1
▁mil 1
▁stand 1
▁group 1
▁small 1
▁mag 1
сть 1
▁default 1
▁single 1
link 1
clude 1
▁ear 1
ilar 1
**** 1
▁fix 1
ley 1
▁pas 1
ний 1
ission 1
▁implement 1
itch 1
▁года 1
▁always 1
▁Jah 1
pring 1
ção 1
plate 1
▁descri 1
▁head 1
init 1
ograf 1
▁query 1
ived 1
▁ing 1
pty 1
ha 1
▁mov 1
▁э 1
ette 1
ily 1
▁got 1
iled 1
icro 1
▁wr 1
ря 1
▁never 1
ores 1
▁bas 1
ios 1
lack 1
aint 1
vious 1
▁give 1
idad 1
En 1
ный 1
table 1
▁На 1
▁pat 1
тор 1
angu 1
loy 1
▁seg 1
array 1
▁Fl 1
▁index 1
▁sw 1
IMAGE 1
▁km 1
би 1
Class 1
ena 1
мен 1
comp 1
atus 1
rap 1
▁List 1
Error 1
▁typ 1
▁ма 1
cs 1
': 1
ji 1
▁However 1
▁те 1
▁below 1
▁App 1
ще 1
}_ 1
bum 1
vir 1
ées 1
▁record 1
tain 1
lem 1
ital 1
▁imp 1
ego 1
▁od 1
▁rece 1
mit 1
ffic 1
stackoverflow 1
ieve 1
▁З 1
▁nov 1
це 1
▁Intern 1
bu 1
▁sugg 1
▁loop 1
ride 1
▁$( 1
▁super 1
rid 1
ных 1
▁Per 1
▁dom 1
=' 1
utsch 1
len 1
▁write 1
▁inv 1
outh 1
▁Her 1
▁years 1
▁original 1
ega 1
▁Ste 1
▁seems 1
ég 1
▁next 1
eder 1
▁Ne 1
avas 1
ification 1
Exception 1
▁Der 1
▁ve 1
atic 1
hat 1
brary 1
return 1
urch 1
ision 1
mi 1
oint 1
▁day 1
iction 1
ál 1
▁és 1
▁though 1
action 1
ít 1
ungen 1
ours 1
▁script 1
▁information 1
▁multi 1
▁\\ 1
ster 1
ке 1
AC 1
cies 1
▁display 1
oman 1
Time 1
ius 1
)); 1
tre 1
▁lim 1
ately 1
éd 1
iste 1
▁са 1
post 1
uel 1
img 1
▁ч 1
ска 1
eld 1
pper 1
ula 1
▁general 1
Al 1
Form 1
▁upon 1
zo 1
amente 1
▁prom 1
▁ü 1
lex 1
▁turn 1
▁ме 1
ention 1
лен 1
▁af 1
icle 1
ств 1
▁Fil 1
▁Ф 1
avascript 1
Man 1
ara 1
ware 1
align 1
angle 1
▁Sc 1
unic 1
▁fran 1
Un 1
zi 1
met 1
Add 1
▁pub 1
ков 1
▁gen 1
▁pod 1
▁sum 1
▁having 1
▁avec 1
sl 1
▁fig 1
▁Res 1
Date 1
ules 1
with 1
ский 1
gu 1
ET 1
▁bro 1
rie 1
aps 1
ending 1
mail 1
ook 1
▁success 1
berg 1
▁deb 1
elta 1
()` 1
ential 1
frame 1
Key 1
inn 1
▁simple 1
ival 1
▁care 1
▁Web 1
"). 1
></ 1
▁database 1
▁Now 1
Ind 1
▁мо 1
cht 1
ban 1
ram 1
equation 1
ski 1
ief 1
lim 1
Get 1
▁tre 1
aten 1
bed 1
▁Je 1
▁results 1
лю 1
тель 1
db 1
▁bit 1
body 1
Array 1
mu 1
pression 1
▁ста 1
ony 1
iff 1
▁bar 1
▁Arch 1
bers 1
){ 1
▁Mon 1
▁doing 1
▁prof 1
▁install 1
▁position 1
ema 1
▁}); 1
Path 1
ali 1
▁&& 1
lev 1
▁cannot 1
▁May 1
inst 1
-\ 1
▁coun 1
▁ang 1
▁appear 1
cor 1
ció 1
ided 1
questions 1
atter 1
▁Pa 1
select 1
▁princi 1
Event 1
▁side 1
▁mem 1
▁Jan 1
ario 1
▁within 1
▁Val 1
odes 1
iddle 1
uration 1
bra 1
▁date 1
[] 1
▁entre 1
ili 1
Portail 1
docs 1
ской 1
Element 1
▁message 1
▁nach 1
▁during 1
▁gra 1
etwork 1
▁By 1
▁tell 1
ete 1
~\ 1
▁bis 1
▁pu 1
▁red 1
▁thing 1
▁sort 1
xim 1
ires 1
User 1
iod 1
▁Est 1
osed 1
oute 1
▁Les 1
▁sent 1
ribute 1
utes 1
istory 1
▁service 1
'; 1
field 1
▁IN 1
ension 1
rel 1
▁going 1
web 1
Context 1
▁later 1
uk 1
layout 1
ona 1
át 1
---------------- 1
▁exact 1
andom 1
▁sie 1
II 1
▁They 1
mente 1
ibli 1
▁fine 1
UT 1
▁develop 1
▁Ein 1
soft 1
off 1
Set 1
▁az 1
eters 1
ilder 1
ples 1
▁specific 1
▁om 1
error 1
ently 1
▁film 1
uck 1
ains 1
ación 1
ges 1
жа 1
▁things 1
Sh 1
▁thought 1
▁added 1
dep 1
ского 1
▁Li 1
ils 1
ync 1
▁то 1
ries 1
▁cu 1
chen 1
ION 1
▁Des 1
ultado 1
irt 1
▁based 1
▁mo 1
▁dest 1
png 1
reen 1
▁running 1
amma 1
oud 1
▁refer 1
ious 1
▁Jul 1
▁search 1
ald 1
ede 1
▁wrong 1
An 1
▁until 1
site 1
ayer 1
▁once 1
arr 1
▁against 1
==== 1
▁source 1
arn 1
api 1
▁represent 1
▁aff 1
▁sein 1
▁allow 1
ormal 1
ended 1
▁control 1
mathbf 1
come 1
cur 1
endo 1
wa 1
▁update 1
▁inside 1
▁reason 1
omen 1
▁вы 1
De 1
▁је 1
sw 1
▁sever 1
Of 1
▁instance 1
▁mer 1
▁effect 1
color 1
ugust 1
ilt 1
des 1
itz 1
ulation 1
nie 1
▁World 1
▁similar 1
ymbol 1
hing 1
▁mark 1
State 1
▁content 1
▁means 1
amed 1
▁End 1
ND 1
count 1
▁Inst 1
perty 1
ctor 1
▁{\ 1
▁Let 1
▁!= 1
▁getting 1
uth 1
umber 1
▁Consultado 1
schaft 1
lete 1
▁Will 1
▁Em 1
head 1
▁leg 1
ном 1
Or 1
arm 1
pond 1
▁Christ 1
▁around 1
▁clear 1
▁href 1
▁See 1
'). 1
▁created 1
▁button 1
ining 1
▁click 1
iam 1
plit 1
For 1
▁polit 1
▁seem 1
▁life 1
нов 1
▁intern 1
щи 1
sel 1
soci 1
▁stor 1
cle 1
earch 1
android 1
}^{ 1
▁either 1
▁few 1
▁initial 1
length 1
ria 1
sql 1
wik 1
▁ét 1
uer 1
▁valid 1
And 1
include 1
ury 1
▁sus 1
ired 1
▁After 1
▁due 1
▁bei 1
ources 1
▁Nov 1
Act 1
▁Cont 1
▁break 1
ested 1
▁actually 1
else 1
tml 1
rer 1
ones 1
▁design 1
▁property 1
phi 1
ality 1
och 1
ists 1
▁· 1
udio 1
AB 1
ala 1
iones 1
фи 1
find 1
As 1
▁custom 1
▁ann 1
ES 1
OT 1
lambda 1
▁ident 1
▁organ 1
▁Cent 1
▁Char 1
▁os 1
▁hard 1
ров 1
▁/> 1
ko 1
▁exper 1
▁separ 1
yl 1
ourn 1
▁dev 1
▁auch 1
▁block 1
book 1
▁map 1
illa 1
▁comput 1
▁space 1
result 1
)} 1
▁echo 1
config 1
hi 1
▁large 1
▁width 1
▁Go 1
mat 1
▁diff 1
▁kind 1
ances 1
ynam 1
▁color 1
Int 1
sol 1
▁pi 1
▁character 1
oment 1
▁response 1
igma 1
wards 1
arrow 1
су 1
ties 1
▁über 1
Image 1
yd 1
▁пере 1
▁node 1
▁item 1
achine 1
ima 1
▁va 1
▁approach 1
▁wer 1
▁че 1
On 1
ollow 1
она 1
cted 1
ured 1
Controller 1
lied 1
▁jo 1
▁dal 1
unk 1
▁î 1
start 1
ola 1
▁compon 1
IC 1
bit 1
▁base 1
пу 1
▁idea 1
▁dire 1
▁rad 1
group 1
▁With 1
server 1
side 1
sing 1
▁dies 1
▁near 1
▁voor 1
▁argument 1
▁}, 1
▁land 1
▁names 1
▁option 1
ithub 1
pped 1
aug 1
▁links 1
▁full 1
▁situ 1
▁console 1
▁etc 1
aux 1
▁Cor 1
icrosoft 1
▁came 1
local 1
▁known 1
▁multiple 1
anguage 1
▁total 1
ology 1
ät 1
▁Х 1
▁fre 1
▁ten 1
ideo 1
▁bes 1
true 1
Query 1
omm 1
▁Art 1
▁keep 1
▁University 1
reate 1
pport 1
▁python 1
tra 1
ector 1
рі 1
oph 1
▁conc 1
▁four 1
viron 1
▁via 1
?" 1
image 1
oll 1
ные 1
▁context 1
▁sem 1
._ 1
▁eng 1
mar 1
AD 1
▁mor 1
▁Cal 1
▁cell 1
imal 1
ATE 1
▁inf 1
ön 1
uffer 1
sq 1
.... 1
▁zur 1
With 1
ран 1
chn 1
▁door 1
content 1
▁miss 1
▁simp 1
ár 1
ira 1
▁hat 1
Test 1
▁certain 1
NS 1
▁cho 1
▁adv 1
where 1
▁looking 1
▁times 1
них 1
uto 1
▁É 1
can 1
host 1
▁(* 1
loat 1
▁nicht 1
Field 1
burg 1
const 1
ades 1
▁Mus 1
▁nothing 1
▁incre 1
▁Min 1
▁power 1
▁American 1
ln 1
valid 1
ungs 1
▁National 1
▁San 1
▁York 1
Request 1
char 1
▁Ze 1
button 1
▁alg 1
SON 1
▁ap 1
uff 1
ability 1
ем 1
▁anything 1
ela 1
()) 1
ба 1
ampion 1
▁pot 1
▁fut 1
ailable 1
▁prop 1
"] 1
▁less 1
lag 1
▁August 1
It 1
▁please 1
▁style 1
▁Also 1
bt 1
▁probably 1
▁One 1
▁poss 1
UI 1
uit 1
▁West 1
hn 1
+\ 1
Button 1
json 1
err 1
rame 1
dom 1
ilon 1
alf 1
▁client 1
▁continu 1
xml 1
pec 1
ador 1
ls 1
▁however 1
▁Any 1
änd 1
mathrm 1
▁url 1
▁book 1
▁gl 1
ives 1
gi 1
▁tro 1
▁US 1
point 1
open 1
▁cur 1
▁era 1
▁particular 1
▁HT 1
oot 1
ello 1
lobal 1
▁action 1
▁Int 1
▁include 1
▁elements 1
ная 1
ards 1
▁Bl 1
▁hum 1
from 1
change 1
▁functions 1
hen 1
Service 1
▁height 1
▁Land 1
ias 1
gs 1
ión 1
лов 1
node 1
.” 1
hand 1
▁бу 1
▁amb 1
▁Lu 1
▁throw 1
▁mot 1
▁Act 1
▁world 1
_\ 1
base 1
▁Co 1
▁arch 1
▁#### 1
ged 1
pril 1
older 1
Model 1
▁several 1
lie 1
check 1
]{ 1
cons 1
▁Tra 1
heck 1
▁least 1
down 1
ebru 1
Def 1
param 1
ischer 1
▁cas 1
CH 1
▁address 1
▁раз 1
ufen 1
urope 1
ей 1
▁bound 1
CO 1
▁Ang 1
▁Ma 1
Index 1
core 1
ouch 1
atabase 1
ribution 1
document 1
Le 1
}_{ 1
vern 1
▁statement 1
▁Brit 1
ono 1
psilon 1
▁level 1
▁product 1
IS 1
▁course 1
▁Mr 1
<unk3> 1
▁background 1
▁ret 1
ering 1
most 1
сько 1
▁thread 1
itional 1
ites 1
Pl 1
▁dos 1
ga 1
day 1
▁Gener 1
▁tw 1
Ad 1
">< 1
▁($ 1
▁moment 1
title 1
create 1
version 1
Manager 1
▁fur 1
pping 1
ijn 1
ос 1
▁rather 1
ptember 1
OS 1
▁site 1
▁caus 1
ani 1
▁home 1
мі 1
▁short 1
pa 1
▁lead 1
ished 1
cing 1
ording 1
▁prote 1
сле 1
LECT 1
▁didn 1
position 1
"," 1
(), 1
trans 1
▁lot 1
▁од 1
AS 1
▁sat 1
▁points 1
github 1
style 1
▁году 1
▁Dis 1
ponent 1
omet 1
zer 1
ULL 1
▁pa 1
AP 1
aces 1
▁United 1
ama 1
ety 1
Color 1
▁enough 1
US 1
▁length 1
()); 1
^{\ 1
fty 1
Box 1
apter 1
▁complet 1
ник 1
max 1
object 1
({ 1
imgur 1
itive 1
unch 1
▁Sub 1
ende 1
гу 1
ategory 1
ты 1
iano 1
▁upd 1
▁Aust 1
}{\ 1
top 1
las 1
pis 1
iness 1
<unk1> 1
▁Е 1
Gr 1
▁AS 1
▁ве 1
thers 1
▁defined 1
azione 1
▁offic 1
▁autom 1
ün 1
▁brow 1
▁serv 1
▁remove 1
iro 1
▁Bibli 1
ED 1
▁whole 1
▁ш 1
▁Java 1
▁zum 1
ua 1
pm 1
dev 1
кра 1
olds 1
▁War 1
än 1
pass 1
uz 1
[" 1
▁tri 1
ised 1
ха 1
▁memory 1
▁Port 1
oper 1
Up 1
▁Thank 1
▁Mich 1
ych 1
board 1
бу 1
Inst 1
▁begin 1
ination 1
▁Mod 1
_, 1
▁Den 1
option 1
▁construct 1
▁Just 1
Map 1
run 1
▁respect 1
ham 1
ман 1
imedia 1
▁apply 1
cription 1
main 1
▁Ка 1
oid 1
Code 1
}; 1
Info 1
▁format 1
Log 1
▁су 1
▁lat 1
utor 1
▁reference 1
▁calcul 1
onn 1
Lo 1
infty 1
▁along 1
▁č 1
▁task 1
▁ev 1
theta 1
ras 1
jor 1
▁бо 1
▁princip 1
My 1
▁einer 1
▁Es 1
omb 1
quad 1
^{- 1
ump 1
▁till 1
ді 1
▁looks 1
▁ok 1
ца 1
nu 1
Fil 1
▁sont 1
▁Med 1
ague 1
▁cost 1
▁Sim 1
▁comment 1
▁(\ 1
egen 1
▁parameter 1
▁France 1
rep 1
▁TH 1
▁yet 1
▁away 1
▁circ 1
▁API 1
emp 1
ві 1
Layout 1
▁lines 1
▁Part 1
empt 1
▁Bi 1
▁mind 1
ky 1
ging 1
▁report 1
▁Add 1
род 1
▁range 1
cias 1
lip 1
▁Kar 1
▁Commons 1
gerufen 1
aff 1
sec 1
▁html 1
lig 1
▁window 1
inition 1
cis 1
▁ut 1
eln 1
▁aux 1
▁neg 1
Hand 1
▁); 1
▁anal 1
▁fri 1
▁си 1
etch 1
md 1
page 1
▁library 1
▁:= 1
ROM 1
You 1
space 1
▁durch 1
▁host 1
aven 1
▁File 1
alle 1
тив 1
▁pap 1
ство 1
mark 1
▁mais 1
erman 1
Size 1
ек 1
▁Ма 1
▁isn 1
▁copy 1
sten 1
river 1
▁went 1
▁javascript 1
▁sam 1
▁frame 1
▁vi 1
▁previous 1
rodu 1
▁methods 1
▁necess 1
NA 1
cket 1
▁opt 1
Loc 1
how 1
▁în 1
ship 1
▁itself 1
▁Please 1
iene 1
вер 1
▁<< 1
▁mill 1
▁trad 1
pace 1
▁Har 1
iten 1
wise 1
write 1
ции 1
ры 1
Line 1
olo 1
▁accept 1
height 1
▁elect 1
ella 1
▁på 1
Select 1
▁ли 1
▁\< 1
(( 1
▁ID 1
ops 1
ван 1
ió 1
TP 1
», 1
nection 1
parent 1
▁Mag 1
Table 1
Over 1
▁network 1
спо 1
▁assign 1
igger 1
irm 1
)` 1
ottom 1
beta 1
▁dell 1
▁body 1
▁да 1
▁Your 1
▁fue 1
▁package 1
▁light 1
▁** 1
MP 1
▁cou 1
yes 1
:\ 1
▁Ч 1
▁mention 1
ensch 1
▁deg 1
▁convert 1
▁Dav 1
adt 1
Result 1
though 1
▁bus 1
xy 1
▁seen 1
All 1
public 1
ively 1
▁Rec 1
▁His 1
sim 1
▁för 1
▁histor 1
▁sett 1
rat 1
abled 1
▁», 1
google 1
Web 1
él 1
▁title 1
▁Janu 1
ја 1
▁took 1
iden 1
sz 1
▁Get 1
▁objects 1
▁common 1
▁changes 1
▁Lond 1
▁extern 1
▁ju 1
Is 1
▁available 1
tri 1
▁más 1
osa 1
Be 1
▁Data 1
ural 1
▁hom 1
▁account 1
oo 1
▁perm 1
respond 1
yt 1
▁send 1
▁returns 1
ivid 1
▁expla 1
ín 1
▁nor 1
If 1
▁From 1
▁target 1
fect 1
ент 1
▁uit 1
▁Jo 1
▁variables 1
▁series 1
▁func 1
▁himself 1
▁ча 1
anti 1
▁ach 1
ialog 1
▁std 1
ae 1
▁foot 1
▁unter 1
gress 1
Not 1
rad 1
fér 1
▁util 1
orem 1
▁sou 1
opt 1
▁og 1
▁uma 1
itar 1
▁Ok 1
ück 1
sqrt 1
▁ant 1
▁werden 1
år 1
}); 1
▁Paris 1
▁exception 1
▁determ 1
▁Vol 1
▁Sam 1
▁ess 1
lies 1
ioni 1
oding 1
idget 1
▁pri 1
▁whether 1
▁под 1
▁numbers 1
▁~ 1
event 1
▁shows 1
atures 1
▁house 1
▁face 1
▁się 1
vironment 1
van 1
▁including 1
▁<- 1
times 1
now 1
▁pur 1
ifier 1
▁emp 1
▁cla 1
mon 1
▁Das 1
ady 1
▁від 1
▁ц 1
abor 1
OST 1
▁band 1
▁ú 1
▁exactly 1
iert 1
avig 1
▁redu 1
▁SE 1
lished 1
Bu 1
Message 1
cell 1
fully 1
▁sv 1
▁makes 1
pol 1
▁required 1
ferrer 1
▁pers 1
▁mi 1
FI 1
▁Paul 1
▁UI 1
▁Bel 1
inc 1
▁contains 1
Out 1
asure 1
pu 1
oto 1
▁game 1
zn 1
▁Why 1
orith 1
big 1
кий 1
sigma 1
▁quite 1
▁jed 1
rec 1
▁SQL 1
бе 1
▁Mart 1
ya 1
▁school 1
▁simply 1
▁vor 1
▁double 1
рав 1
▁Str 1
iem 1
▁album 1
▁resol 1
▁dei 1
▁Wik 1
▁aw 1
umb 1
ols 1
▁*/ 1
▁ze 1
▁anim 1
/> 1
ris 1
resh 1
No 1
iques 1
current 1
▁period 1
▁April 1
▁store 1
',' 1
▁Set 1
={ 1
ached 1
▁Mal 1
▁Pal 1
antes 1
aterial 1
▁worked 1
leq 1
oreferrer 1
▁happen 1
▁box 1
ney 1
▁close 1
▁gran 1
▁lie 1
▁ir 1
▁expected 1
▁для 1
click 1
și 1
▁parte 1
ogn 1
▁Form 1
▁memb 1
▁plan 1
▁team 1
][ 1
▁commun 1
orry 1
ency 1
gl 1
inary 1
cdot 1
^\ 1
▁First 1
ander 1
▁Dec 1
request 1
ства 1
▁structure 1
▁|| 1
▁Comp 1
actory 1
▁Mil 1
▁Some 1
Stream 1
▁assum 1
uen 1
▁words 1
▁September 1
▁Ко 1
▁days 1
ories 1
став 1
sm 1
vin 1
partial 1
▁parent 1
oj 1
нии 1
!" 1
ugin 1
▁Windows 1
Ed 1
:} 1
▁q 1
▁ben 1
iana 1
▁label 1
state 1
uted 1
▁() 1
▁сво 1
▁edit 1
uring 1
▁NS 1
▁Jahr 1
▁provide 1
He 1
▁Yes 1
anel 1
ename 1
▁Don 1
isk 1
gra 1
elij 1
▁root 1
*/ 1
▁Fre 1
▁Mor 1
used 1
range 1
▁tamb 1
▁module 1
▁directory 1
ounds 1
Activity 1
▁mu 1
info 1
▁free 1
orge 1
tab 1
)= 1
lang 1
▁ос 1
▁FROM 1
▁enter 1
▁became 1
idae 1
хи 1
▁States 1
verse 1
▁expl 1
ynt 1
UN 1
ee 1
endent 1
▁making 1
▁"$ 1
uni 1
quence 1
▁lui 1
HT 1
▁uses 1
zie 1
nia 1
Content 1
▁Count 1
▁standard 1
ENT 1
▁кон 1
fort 1
adas 1
зу 1
System 1
▁Sw 1
▁ever 1
LO 1
▁correspond 1
▁Po 1
argin 1
кт 1
ій 1
▁remain 1
cio 1
▁actual 1
сту 1
▁sind 1
▁Pe 1
▁changed 1
▁Note 1
skie 1
▁family 1
ità 1
cos 1
txt 1
ker 1
ceed 1
▁arr 1
▁cam 1
izer 1
▁Dan 1
hel 1
icult 1
HP 1
iler 1
▁Sal 1
▁connection 1
usion 1
kn 1
RI 1
▁vom 1
Listener 1
▁ö 1
▁dim 1
▁press 1
▁esc 1
▁Try 1
atalog 1
▁thanks 1
DO 1
▁written 1
dir 1
rew 1
▁fire 1
▁Nach 1
▁á 1
enc 1
▁origin 1
▁November 1
▁}; 1
Count 1
▁За 1
▁graph 1
▁mis 1
▁External 1
▁▁▁▁▁▁▁▁▁ 1
▁options 1
▁URL 1
▁php 1
▁integr 1
Config 1
▁Text 1
inner 1
▁crit 1
,” 1
▁tog 1
$$ 1
nof 1
▁ses 1
ühr 1
▁Since 1
Des 1
ube 1
▁section 1
▁gi 1
ford 1
▁Ass 1
ainer 1
ttp 1
▁behav 1
ports 1
draw 1
This 1
ranch 1
inding 1
▁estab 1
▁obtain 1
rich 1
licit 1
ев 1
▁qual 1
▁za 1
▁har 1
▁fac 1
aar 1
jet 1
icles 1
▁Aus 1
▁hor 1
▁remov 1
▁wie 1
Client 1
▁natur 1
hip 1
Sub 1
▁random 1
DF 1
▁area 1
tag 1
Pr 1
▁Ital 1
▁roku 1
nofollow 1
*} 1
▁others 1
▁limit 1
▁sil 1
▁sav 1
▁often 1
▁render 1
DB 1
▁Mc 1
▁zijn 1
жен 1
▁tag 1
ming 1
lichen 1
pack 1
▁Ag 1
▁sense 1
pg 1
Method 1
aged 1
ág 1
ła 1
▁interest 1
▁associ 1
volution 1
▁empty 1
iche 1
▁gro 1
▁types 1
▁Sie 1
Inter 1
▁noreferrer 1
▁gives 1
hal 1
▁save 1
▁font 1
ruction 1
Script 1
▁alla 1
▁says 1
▁fu 1
ape 1
▁language 1
iger 1
▁King 1
bor 1
uv 1
▁shall 1
▁Europe 1
▁einem 1
▁water 1
▁govern 1
anz 1
ators 1
▁month 1
ye 1
▁important 1
atz 1
first 1
▁Trans 1
▁Mad 1
▁bra 1
ika 1
▁Saint 1
oria 1
kre 1
ements 1
▁Ben 1
lav 1
▁admin 1
▁Hen 1
ril 1
▁Sm 1
cat 1
▁Refer 1
▁Ш 1
▁pract 1
▁Pat 1
▁Gre 1
▁young 1
▁Inter 1
oma 1
teger 1
ibility 1
▁parameters 1
▁everything 1
dat 1
urop 1
olean 1
▁returned 1
▁Class 1
acy 1
#### 1
▁př 1
▁folder 1
▁kon 1
▁guess 1
gt 1
jen 1
annel 1
icon 1
▁comb 1
rict 1
▁hij 1
▁author 1
see 1
here 1
stra 1
▁entire 1
▁directly 1
raft 1
heet 1
ester 1
▁ми 1
▁mass 1
untu 1
▁users 1
chi 1
PE 1
▁component 1
Click 1
Att 1
▁sobre 1
ands 1
▁Hol 1
▁Sant 1
ori 1
▁sua 1
std 1
entic 1
CC 1
▁filter 1
SQL 1
▁God 1
At 1
▁му 1
▁performance 1
delta 1
ande 1
amer 1
ды 1
▁cult 1
▁Nor 1
but 1
▁lik 1
******** 1
ствен 1
▁comme 1
▁dr 1
imer 1
ordin 1
▁condition 1
este 1
([ 1
FF 1
ться 1
imo 1
rab 1
іль 1
▁half 1
each 1
Dis 1
▁rows 1
▁hon 1
▁together 1
▁și 1
medi 1
agn 1
alled 1
▁vill 1
ING 1
idden 1
▁draw 1
yntax 1
▁attempt 1
URL 1
pose 1
▁indic 1
ника 1
▁English 1
▁déc 1
▁needs 1
▁normal 1
urt 1
▁но 1
}}\ 1
last 1
▁Fin 1
▁Febru 1
ila 1
▁country 1
▁fields 1
▁max 1
lés 1
owie 1
▁deux 1
▁built 1
▁Main 1
▁camp 1
ivo 1
iva 1
icy 1
zione 1
Node 1
▁:) 1
▁among 1
▁Ob 1
▁cases 1
haps 1
sers 1
arter 1
ści 1
▁iter 1
▁named 1
exec 1
▁season 1
tot 1
=> 1
graph 1
▁nil 1
acional 1
▁NULL 1
▁special 1
сте 1
css 1
▁\( 1
vs 1
ael 1
▁city 1
ova 1
▁article 1
▁South 1
Action 1
ça 1
spring 1
itude 1
▁complex 1
▁что 1
build 1
gamma 1
▁Ent 1
iers 1
'. 1
car 1
apache 1
ingen 1
Input 1
:  1
▁dynam 1
alls 1
show 1
|\ 1
▁wird 1
Bar 1
alth 1
model 1
Trans 1
Row 1
abe 1
▁lib 1
null 1
ragment 1
▁State 1
▁law 1
Frame 1
▁Lo 1
geb 1
}$. 1
▁needed 1
▁contr 1
aries 1
▁screen 1
yr 1
mm 1
▁shown 1
▁bad 1
▁cast 1
▁Test 1
▁Auf 1
▁quant 1
iga 1
▁ren 1
▁Mac 1
▁transform 1
▁difference 1
▁tit 1
TE 1
▁step 1
▁capt 1
▁collection 1
ictionary 1
▁Tom 1
rier 1
▁move 1
cope 1
ords 1
▁further 1
▁columns 1
▁Lin 1
▁fixed 1
▁children 1
MS 1
mo 1
una 1
▁individ 1
tty 1
aste 1
src 1
match 1
wi 1
▁х 1
▁ди 1
▁ord 1
iving 1
▁Bro 1
▁almost 1
▁Pres 1
reci 1
aring 1
▁/// 1
ется 1
▁sig 1
light 1
▁Red 1
▁suggest 1
olf 1
▁été 1
isation 1
зна 1
New 1
стан 1
LA 1
unicip 1
▁figure 1
mt 1
iale 1
▁catch 1
default 1
▁tele 1
▁matter 1
cast 1
▁Rich 1
▁handle 1
valu 1
$- 1
об 1
▁json 1
Create 1
▁exam 1
аль 1
ют 1
ored 1
idos 1
append 1
▁Array 1
кс 1
}[ 1
rive 1
▁club 1
mann 1
▁este 1
esta 1
▁Gi 1
▁Jap 1
▁Name 1
Column 1
oups 1
ismo 1
▁City 1
▁classes 1
▁infl 1
hl 1
ром 1
▁adding 1
▁fail 1
xx 1
ões 1
Sc 1
util 1
▁location 1
lege 1
ago 1
▁properties 1
abil 1
vas 1
}$, 1
itted 1
ód 1
▁Dem 1
▁asked 1
▁tab 1
Source 1
▁errors 1
ographie 1
▁жи 1
▁mal 1
stract 1
▁dro 1
rak 1
▁note 1
▁setting 1
▁fem 1
▁saw 1
iar 1
HER 1
ес 1
▁pred 1
▁Out 1
▁items 1
лан 1
▁werd 1
ersion 1
lia 1
▁sin 1
ichte 1
▁feel 1
▁пра 1
▁oder 1
UE 1
ocument 1
▁mode 1
▁Na 1
ден 1
mes 1
framework 1
▁auto 1
ным 1
uby 1
▁template 1
▁mess 1
ieder 1
▁related 1
oken 1
▁follows 1
search 1
ami 1
▁wait 1
igr 1
▁low 1
ских 1
ская 1
▁Mark 1
▁ill 1
amento 1
\< 1
▁df 1
osition 1
▁Ви 1
isf 1
▁Deutsch 1
ahl 1
war 1
itect 1
▁sal 1
elen 1
ById 1
▁gru 1
sv 1
▁passed 1
▁añ 1
Sch 1
▁solve 1
weise 1
atos 1
▁meg 1
▁member 1
ername 1
▁connect 1
ips 1
▁round 1
▁] 1
nes 1
▁dir 1
▁London 1
dy 1
FA 1
▁received 1
reet 1
▁Log 1
▁School 1
ango 1
▁These 1
▁Mont 1
▁ener 1
lad 1
▁define 1
sign 1
▁cle 1
figure 1
▁View 1
textbf 1
$\ 1
зы 1
number 1
▁din 1
eller 1
orithm 1
false 1
fol 1
fficient 1
▁HTML 1
liche 1
▁Mo 1
▁introdu 1
exp 1
▁strong 1
▁thus 1
/) 1
▁ele 1
▁так 1
▁па 1
▁dont 1
▁cause 1
Number 1
▁images 1
▁sample 1
▁sci 1
like 1
▁Lou 1
div 1
anc 1
▁front 1
nen 1
▁missing 1
aria 1
pres 1
▁пред 1
DI 1
filter 1
▁Mit 1
UR 1
▁opp 1
▁sql 1
▁року 1
eren 1
emat 1
ís 1
▁Jean 1
éc 1
▁ci 1
enne 1
atform 1
▁taken 1
▁Of 1
▁насе 1
▁err 1
OP 1
From 1
Default 1
▁General 1
wiki 1
▁grand 1
▁einen 1
Reg 1
Handler 1
conom 1
anger 1
▁был 1
▁Los 1
▁expression 1
ша 1
yal 1
▁$(' 1
▁switch 1
▁vector 1
▁Thom 1
▁virt 1
leased 1
▁cover 1
▁resp 1
ako 1
rench 1
ota 1
Cell 1
anged 1
▁+= 1
lac 1
ska 1
next 1
▁International 1
▁Wil 1
▁ont 1
ibr 1
ustr 1
▁black 1
▁selected 1
cher 1
▁liter 1
root 1
лся 1
▁Life 1
▁insert 1
▁matrix 1
ises 1
)] 1
▁pel 1
Override 1
rypt 1
▁former 1
▁Film 1
▁North 1
client 1
▁night 1
ходи 1
▁Austral 1
▁Ret 1
rho 1
▁пер 1
ipedia 1
▁express 1
▁third 1
▁major 1
▁grad 1
owe 1
▁believe 1
ournal 1
▁status 1
unc 1
▁dou 1
▁JSON 1
uis 1
▁population 1
enz 1
▁William 1
sf 1
▁Object 1
▁cin 1
▁Di 1
curity 1
▁Open 1
▁ле 1
lar 1
adding 1
▁kom 1
}(\ 1
▁kil 1
umer 1
"/> 1
▁feature 1
▁Are 1
cks 1
▁Internet 1
▁ih 1
▁started 1
▁early 1
▁began 1
TH 1
python 1
asp 1
▁Fr 1
▁clos 1
istic 1
▁music 1
▁dig 1
▁ital 1
▁David 1
▁website 1
▁controller 1
▁Mer 1
context 1
product 1
osp 1
▁▁▁▁▁▁▁ 1
▁jun 1
rown 1
▁Az 1
":" 1
▁aan 1
▁Date 1
mult 1
▁browser 1
ред 1
which 1
RA 1
quare 1
▁Russ 1
▁soon 1
▁Pre 1
tau 1
▁week 1
▁ба 1
▁oct 1
▁town 1
roy 1
▁els 1
blic 1
undle 1
▁Histor 1
▁foi 1
▁models 1
зо 1
onym 1
Param 1
▁Met 1
gener 1
ją 1
▁espe 1
CE 1
▁device 1
ellow 1
▁debug 1
érie 1
using 1
анг 1
▁*) 1
udi 1
▁Miss 1
ком 1
posed 1
▁zwe 1
ін 1
▁Robert 1
▁Oct 1
lop 1
jar 1
▁aver 1
▁habit 1
▁:: 1
äng 1
Start 1
▁pow 1
▁src 1
▁pattern 1
▁Э 1
▁bi 1
otes 1
▁__ 1
▁sens 1
▁avoid 1
example 1
utt 1
Label 1
tex 1
boot 1
esto 1
▁March 1
▁easy 1
icture 1
Group 1
▁father 1
▁updated 1
▁Vo 1
▁III 1
omega 1
▁alle 1
Rec 1
yg 1
зе 1
▁Dim 1
nect 1
▁Tor 1
▁deutsch 1
▁white 1
▁national 1
ppe 1
▁air 1
▁password 1
det 1
▁big 1
▁Use 1
call 1
▁extra 1
We 1
ania 1
▁hold 1
Control 1
▁CO 1
▁мі 1
iti 1
▁Ke 1
enu 1
▁Park 1
том 1
▁auth 1
▁center 1
Ph 1
тов 1
iding 1
▁across 1
▁song 1
▁phys 1
▁numer 1
ща 1
▁Alex 1
▁problems 1
▁Error 1
format 1
▁Acc 1
▁six 1
▁db 1
▁Cast 1
oms 1
project 1
▁vert 1
cret 1
▁header 1
▁stream 1
ids 1
▁tor 1
▁sept 1
▁estim 1
▁decl 1
▁gave 1
▁player 1
ysis 1
▁дру 1
amm 1
що 1
▁(" 1
▁ax 1
Property 1
usr 1
▁someone 1
▁impro 1
aden 1
rote 1
▁Ми 1
ih 1
++) 1
▁video 1
▁exists 1
кла 1
▁complete 1
▁session 1
▁constant 1
icos 1
▁pack 1
rome 1
egr 1
Application 1
▁yes 1
▁elle 1
▁email 1
orf 1
case 1
▁pointer 1
▁regard 1
sen 1
status 1
▁mes 1
▁delle 1
ington 1
▁Bas 1
)^ 1
develop 1
▁force 1
▁characters 1
▁cross 1
▁death 1
▁takes 1
éri 1
igne 1
чен 1
UP 1
.: 1
Thread 1
ju 1
iny 1
▁details 1
▁xml 1
tait 1
output 1
message 1
'' 1
▁British 1
ville 1
▁Div 1
▁User 1
cm 1
чно 1
column 1
eqref 1
ór 1
onom 1
▁Post 1
ellen 1
Ab 1
ulté 1
▁perfect 1
(){ 1
vision 1
active 1
lier 1
rij 1
sd 1
▁kö 1
▁nie 1
▁relig 1
▁ot 1
▁machine 1
▁held 1
)$. 1
======== 1
cker 1
вы 1
born 1
▁past 1
рия 1
▁Dr 1
▁regular 1
▁provided 1
TER 1
▁univers 1
▁gets 1
▁nu 1
▁/* 1
ober 1
fin 1
▁nella 1
▁become 1
▁`` 1
▁history 1
▁Sol 1
▁Rad 1
▁terms 1
▁events 1
lymp 1
))) 1
рова 1
▁absol 1
▁soft 1
links 1
▁hope 1
▁subject 1
"), 1
▁creating 1
<unk4> 1
▁Sk 1
▁flow 1
▁Ра 1
▁assert 1
zet 1
▁Frank 1
sa 1
▁distribution 1
cu 1
band 1
izz 1
▁job 1
iner 1
struct 1
ák 1
TO 1
auf 1
▁extends 1
▁Gra 1
display 1
▁signific 1
oney 1
source 1
microsoft 1
inder 1
▁quick 1
▁wonder 1
Instance 1
elles 1
ème 1
▁company 1
uß 1
.} 1
▁separate 1
UM 1
HERE 1
▁writing 1
itution 1
▁Gesch 1
мя 1
▁James 1
▁DE 1
▁Spe 1
process 1
Str 1
▁sym 1
▁ao 1
▁wy 1
▁anyone 1
▁Up 1
useum 1
aron 1
▁definition 1
▁`$ 1
▁fav 1
ributes 1
▁Ré 1
ografia 1
element 1
cap 1
pat 1
▁Bra 1
)( 1
▁according 1
ге 1
▁pie 1
eli 1
}" 1
▁activ 1
▁stop 1
patch 1
ті 1
▁Jose 1
End 1
▁prze 1
▁age 1
itory 1
▁PHP 1
agement 1
▁`. 1
▁pretty 1
▁recomm 1
▁sud 1
▁requ 1
▁обла 1
atives 1
▁High 1
áz 1
oul 1
rest 1
▁Ter 1
under 1
thern 1
center 1
▁ur 1
lat 1
▁interface 1
▁ин 1
▁whose 1
icas 1
amen 1
Filter 1
▁station 1
Page 1
▁arm 1
▁eyes 1
▁рай 1
▁seu 1
oli 1
win 1
lik 1
gex 1
chan 1
idence 1
args 1
aking 1
▁Google 1
▁Stud 1
▁ho 1
торы 1
Su 1
▁automat 1
ême 1
▁cy 1
lor 1
▁stack 1
▁SELECT 1
AF 1
▁>> 1
▁compet 1
▁pair 1
▁inglés 1
Response 1
▁Fig 1
grad 1
▁documentation 1
▁cant 1
▁appreci 1
ån 1
▁learn 1
▁indep 1
▁pal 1
package 1
ares 1
▁Berlin 1
бли 1
reich 1
ён 1
▁satisf 1
▁region 1
▁friend 1
▁George 1
▁Во 1
▁"" 1
▁desde 1
Factory 1
▁County 1
ouv 1
▁‘ 1
▁installed 1
▁wanted 1
▁Python 1
▁interpre 1
▁included 1
▁(( 1
▁altern 1
isto 1
gn 1
▁border 1
pdf 1
▁dup 1
▁download 1
just 1
▁members 1
child 1
▁pay 1
▁cer 1
▁looked 1
▁correctly 1
auth 1
▁стан 1
▁esp 1
▁desc 1
eben 1
▁questions 1
mal 1
▁abgerufen 1
▁Band 1
▁[] 1
Base 1
▁ris 1
▁fort 1
▁Id 1
▁various 1
▁League 1
▁Hand 1
▁Type 1
irl 1
▁Fe 1
ién 1
itter 1
▁fast 1
sta 1
▁except 1
icz 1
▁French 1
▁environment 1
▁conse 1
ур 1
ого 1
▁necessary 1
target 1
▁reading 1
home 1
zeich 1
▁equal 1
▁più 1
▁prem 1
▁difficult 1
▁unit 1
▁replace 1
▁heart 1
▁talk 1
AM 1
▁RE 1
▁Person 1
endency 1
▁imm 1
▁human 1
dn 1
▁Kir 1
▁Aut 1
known 1
▁frequ 1
system 1
лав 1
▁Sz 1
▁Gal 1
ное 1
selves 1
rightarrow 1
▁Са 1
="@ 1
▁building 1
import 1
▁fam 1
▁delete 1
aire 1
mary 1
▁fund 1
▁particip 1
▁syn 1
sin 1
▁lower 1
▁zero 1
▁sec 1
▁fra 1
Point 1
▁failed 1
iento 1
cup 1
▁slow 1
▁nation 1
ähr 1
▁info 1
▁Public 1
▁decla 1
▁Та 1
▁sold 1
▁Rem 1
▁Phil 1
стра 1
▁mehr 1
▁Work 1
▁Nord 1
▁fait 1
▁gew 1
println 1
obile 1
▁Kon 1
▁assume 1
lands 1
▁amount 1
▁Press 1
ých 1
▁maxim 1
▁Champion 1
library 1
añ 1
▁Wal 1
Comm 1
]] 1
▁zw 1
▁social 1
LI 1
▁Unter 1
vor 1
Delta 1
email 1
raint 1
oni 1
▁alt 1
▁né 1
ция 1
ography 1
▁mentioned 1
▁<= 1
▁cette 1
▁currently 1
vare 1
izing 1
▁Def 1
icol 1
ünd 1
▁configuration 1
estig 1
III 1
lam 1
ière 1
▁Ear 1
▁tu 1
Ent 1
▁Using 1
▁ком 1
cie 1
▁proof 1
▁invol 1
▁History 1
>< 1
▁AND 1
avy 1
▁relations 1
${ 1
▁comes 1
▁direction 1
▁June 1
▁Way 1
Component 1
ech 1
▁Peter 1
sg 1
▁stra 1
uct 1
▁implementation 1
attle 1
▁cz 1
plot 1
▁played 1
"></ 1
▁five 1
▁coll 1
▁Charles 1
Tra 1
▁suo 1
files 1
entes 1
response 1
How 1
▁Soci 1
▁ign 1
▁led 1
▁German 1
udo 1
▁Du 1
▁tim 1
ounter 1
▁attack 1
uri 1
▁ар 1
esse 1
ivil 1
▁Ju 1
▁vel 1
matrix 1
▁Mat 1
gio 1
▁Zeit 1
VER 1
has 1
Connection 1
▁ihr 1
▁attribute 1
▁discuss 1
▁domain 1
bind 1
▁Sec 1
rik 1
close 1
gin 1
▁love 1
anto 1
gent 1
aba 1
jango 1
bi 1
▁obser 1
itting 1
▁ру 1
}= 1
agen 1
BC 1
some 1
▁Bu 1
▁soci 1
▁individual 1
▁deal 1
▁outside 1
rio 1
Exec 1
andid 1
▁business 1
▁tempor 1
▁Tur 1
▁(! 1
riter 1
▁google 1
]: 1
itte 1
xi 1
▁Па 1
hol 1
нь 1
ring 1
▁sul 1
ности 1
_. 1
gar 1
Task 1
▁Check 1
▁modern 1
▁win 1
uster 1
han 1
formation 1
void 1
▁фи 1
▁useful 1
▁England 1
los 1
etime 1
eur 1
▁unique 1
▁как 1
ying 1
obj 1
uid 1
▁windows 1
▁distance 1
▁nombre 1
ія 1
ocus 1
ahn 1
ierte 1
▁dar 1
SI 1
long 1
asta 1
iven 1
▁told 1
▁Gru 1
foo 1
▁calling 1
iembre 1
▁future 1
près 1
leep 1
avigation 1
POST 1
▁described 1
▁noch 1
unit 1
allen 1
▁branch 1
fa 1
▁fill 1
▁obj 1
▁tree 1
▁wurden 1
▁Liter 1
rot 1
split 1
emein 1
module 1
CA 1
▁operator 1
▁wrote 1
▁Jack 1
ologie 1
▁Ant 1
тер 1
stream 1
▁Que 1
epsilon 1
non 1
stein 1
▁simpl 1
pub 1
▁July 1
▁nature 1
▁Database 1
ól 1
ним 1
▁VI 1
être 1
iles 1
▁wel 1
'), 1
▁mut 1
location 1
▁therefore 1
elli 1
▁І 1
né 1
▁ав 1
ledge 1
▁conver 1
ím 1
▁XV 1
vider 1
▁January 1
▁usually 1
▁released 1
▁Mi 1
Head 1
iller 1
▁jan 1
▁letter 1
produ 1
rd 1
▁Cam 1
,' 1
▁Ц 1
▁push 1
update 1
▁maybe 1
Http 1
@" 1
мер 1
service 1
parse 1
▁dass 1
ên 1
)" 1
more 1
/* 1
▁mas 1
▁likely 1
▁material 1
▁[[ 1
▁longer 1
bal 1
▁Archiv 1
igt 1
▁egy 1
idge 1
igu 1
conf 1
▁inc 1
consulté 1
▁mai 1
Work 1
▁гра 1
▁October 1
▁global 1
▁sel 1
▁municip 1
▁viol 1
▁Does 1
▁\[ 1
ском 1
▁compos 1
бря 1
вя 1
▁respons 1
▁considered 1
▁Japan 1
pes 1
osto 1
▁milit 1
SP 1
сы 1
attr 1
cil 1
irectory 1
aving 1
▁Del 1
▁prevent 1
idade 1
git 1
iform 1
outer 1
inct 1
level 1
atever 1
▁repe 1
▁exc 1
дар 1
Style 1
▁Thomas 1
eline 1
▁ж 1
untime 1
▁larg 1
True 1
.* 1
creen 1
yles 1
▁transl 1
▁Со 1
ensions 1
äl 1
isse 1
▁volt 1
cially 1
nik 1
.] 1
▁Stadt 1
мы 1
fill 1
lov 1
▁"/ 1
Sp 1
▁Air 1
Call 1
▁nur 1
Check 1
ience 1
efined 1
▁вре 1
ło 1
dz 1
▁ор 1
iker 1
owa 1
ович 1
ré 1
OL 1
▁linear 1
▁export 1
ahr 1
icial 1
Rep 1
▁natural 1
▁cop 1
▁}) 1
ções 1
zz 1
What 1
▁House 1
Ref 1
inger 1
▁taking 1
ně 1
▁Einz 1
▁dam 1
▁issues 1
Builder 1
edit 1
▁prz 1
password 1
Gener 1
rim 1
▁parts 1
--- 1
iginal 1
▁Sci 1
▁mother 1
rea 1
▁container 1
дя 1
▁IP 1
▁none 1
▁followed 1
▁ple 1
▁measure 1
▁tout 1
Ext 1
▁TV 1
▁explain 1
▁paper 1
сті 1
ws 1
Wik 1
▁mm 1
▁Norm 1
▁Server 1
font 1
ecause 1
TR 1
▁би 1
La 1
▁ens 1
▁retr 1
▁Sil 1
▁sequence 1
arc 1
IV 1
zá 1
▁Android 1
▁Super 1
▁roz 1
ovie 1
Om 1
▁Well 1
make 1
orph 1
▁Jer 1
▁Ros 1
reference 1
▁features 1
▁Ger 1
▁Leg 1
▁late 1
▁additional 1
▁flo 1
▁его 1
▁algorithm 1
BA 1
kar 1
IP 1
]); 1
▁appears 1
yw 1
▁temp 1
▁aussi 1
method 1
▁pet 1
strap 1
arning 1
▁cut 1
▁Sa 1
▁track 1
▁employ 1
▁inde 1
rav 1
▁generate 1
bes 1
arts 1
Status 1
uge 1
alis 1
▁override 1
▁fi 1
▁lost 1
oted 1
▁room 1
▁calls 1
▁consist 1
рен 1
▁village 1
dist 1
▁techn 1
enza 1
▁роз 1
▁Catalog 1
▁becom 1
rows 1
▁Nel 1
comple 1
▁premi 1
▁rot 1
▁Weblinks 1
▁football 1
▁compar 1
▁live 1
ких 1
▁equival 1
cape 1
▁Gen 1
nder 1
▁Vis 1
▁behind 1
gers 1
voke 1
▁media 1
EX 1
that 1
▁sono 1
▁mysql 1
ev 1
▁rule 1
дов 1
acc 1
▁WHERE 1
ене 1
Grid 1
▁jul 1
▁mort 1
▁generated 1
encia 1
acter 1
clud 1
▁scen 1
▁closed 1
▁Michael 1
▁mount 1
)$, 1
▁drop 1
▁combin 1
tocol 1
▁goes 1
▁geb 1
MD 1
▁Anton 1
▁$(" 1
Tem 1
▁ca 1
▁instru 1
eds 1
▁tool 1
mys 1
▁route 1
")) 1
пре 1
▁float 1
▁services 1
▁чи 1
кі 1
embly 1
aker 1
▁Son 1
▁Math 1
asse 1
ously 1
lications 1
▁ru 1
▁що 1
▁Const 1
▁immedi 1
FO 1
oro 1
▁production 1
rei 1
▁jquery 1
annt 1
▁While 1
▁sn 1
▁годи 1
Format 1
▁star 1
▁Sen 1
▁ko 1
NAME 1
▁prés 1
cha 1
what 1
omin 1
endant 1
hy 1
▁observ 1
▁prefer 1
ун 1
▁constructor 1
bs 1
▁mac 1
▁Bre 1
▁Instit 1
▁story 1
▁symbol 1
eles 1
ße 1
asing 1
▁west 1
ians 1
▁master 1
ез 1
▁ways 1
bm 1
▁pick 1
▁depart 1
Back 1
enk 1
lipse 1
▁math 1
▁Francis 1
▁December 1
fs 1
rum 1
▁development 1
LT 1
ernel 1
▁True 1
▁More 1
rangle 1
▁conditions 1
Options 1
▁gli 1
▁operation 1
ék 1
acht 1
ights 1
▁mist 1
anda 1
▁energy 1
▁же 1
▁women 1
akt 1
▁CH 1
gebra 1
▁meet 1
iu 1
well 1
öl 1
▁government 1
▁Jos 1
ieg 1
▁syntax 1
fix 1
▁Pet 1
jquery 1
▁card 1
▁principal 1
▁dru 1
▁territ 1
▁пов 1
▁SS 1
рии 1
tres 1
agne 1
lying 1
tilde 1
bern 1
enter 1
Per 1
▁somet 1
Load 1
lice 1
▁sous 1
▁Louis 1
▁logic 1
▁Other 1
▁cir 1
év 1
chron 1
▁han 1
▁margin 1
Window 1
ères 1
nych 1
push 1
bolds 1
▁layout 1
▁[` 1
Char 1
▁Cap 1
boldsymbol 1
▁Roman 1
▁Max 1
:( 1
▁Code 1
ising 1
▁states 1
▁existing 1
support 1
▁research 1
licate 1
vari 1
▁bij 1
▁appe 1
▁happens 1
\" 1
▁concern 1
west 1
▁saying 1
pid 1
▁recogn 1
▁Het 1
Child 1
▁cs 1
\, 1
▁clean 1
lections 1
access 1
ву 1
про 1
acity 1
▁Off 1
▁easily 1
èque 1
▁jako 1
▁iz 1
▁Ha 1
▁Det 1
▁forma 1
sche 1
swers 1
▁offer 1
quired 1
Users 1
▁subst 1
>( 1
▁ground 1
unn 1
rod 1
spe 1
ursor 1
▁leave 1
erk 1
▁tal 1
▁bottom 1
IO 1
▁popular 1
igo 1
▁Time 1
values 1
▁Loc 1
▁Club 1
▁anche 1
iał 1
ії 1
Omega 1
▁located 1
Url 1
▁Esp 1
лы 1
ць 1
ulate 1
▁join 1
aves 1
vet 1
lio 1
remove 1
▁token 1
▁optim 1
▁claim 1
ological 1
▁css 1
▁although 1
▁priv 1
▁Ba 1
ül 1
entication 1
▁ven 1
Server 1
▁Cong 1
NET 1
CON 1
dt 1
perties 1
▁epis 1
wikipedia 1
▁engine 1
▁fer 1
getElement 1
▁Cla 1
ří 1
▁rom 1
varepsilon 1
▁prime 1
istry 1
pected 1
orage 1
▁touch 1
▁[' 1
▁dan 1
Em 1
aciones 1
Can 1
▁whom 1
▁behavior 1
▁strings 1
▁Europ 1
▁Rom 1
circ 1
▁pun 1
▁register 1
buntu 1
rain 1
Ob 1
TA 1
▁sometimes 1
▁ment 1
▁integer 1
▁Jac 1
legate 1
othing 1
▁sound 1
laces 1
▁Ба 1
rb 1
di 1
ления 1
▁themselves 1
▁Black 1
▁settings 1
▁norm 1
▁runs 1
▁NOT 1
KE 1
▁perhaps 1
▁Я 1
▁mol 1
▁ans 1
atre 1
▁Dies 1
Token 1
anie 1
▁allowed 1
Range 1
▁Gro 1
via 1
utorial 1
ensor 1
estival 1
<unk5> 1
краї 1
▁turned 1
scope 1
▁bien 1
=$ 1
▁extension 1
atore 1
▁Ро 1
▁specify 1
edu 1
Datos 1
▁stored 1
▁parse 1
▁answers 1
ills 1
▁heard 1
lu 1
▁THE 1
▁gén 1
▁ful 1
ez 1
▁Prem 1
then 1
dp 1
ського 1
▁Si 1
ço 1
Edit 1
ків 1
▁Ли 1
▁Sing 1
▁categ 1
Equ 1
▁guer 1
Width 1
▁Christian 1
stat 1
Write 1
▁woman 1
wood 1
Vis 1
раз 1
▁$$\ 1
oder 1
▁bool 1
▁international 1
ность 1
▁Richard 1
▁addition 1
▁Music 1
▁aber 1
tó 1
▁hier 1
ugh 1
▁pob 1
▁tables 1
Do 1
▁higher 1
psi 1
rá 1
▁active 1
▁Table 1
ње 1
▁description 1
▁seemed 1
íst 1
▁myself 1
▁menu 1
del 1
▁ž 1
ele 1
Aut 1
▁гру 1
mut 1
oon 1
asc 1
bug 1
▁moved 1
CL 1
▁datas 1
SO 1
оло 1
▁Georg 1
▁reach 1
:" 1
▁evalu 1
▁Hel 1
▁River 1
▁Ар 1
//// 1
▁sets 1
▁Olymp 1
Adapter 1
.' 1
overn 1
▁Lord 1
!-- 1
jpg 1
imento 1
▁Prof 1
▁achieve 1
}: 1
▁incor 1
▁onder 1
engl 1
ABLE 1
▁Mary 1
▁waren 1
lage 1
Dec 1
англ 1
encias 1
лей 1
▁Machine 1
▁Ан 1
uda 1
▁ś 1
▁XX 1
only 1
ление 1
▁también 1
nej 1
▁relative 1
▁hours 1
▁indeed 1
undo 1
ingu 1
area 1
▁Create 1
beit 1
▁removed 1
master 1
haus 1
▁Bern 1
▁speed 1
▁Bay 1
▁Att 1
▁None 1
application 1
üd 1
▁fit 1
▁Maria 1
▁nord 1
▁split 1
▁stru 1
▁official 1
▁execute 1
ouve 1
{{ 1
▁Ap 1
▁ку 1
IL 1
▁^ 1
dim 1
▁setup 1
ск 1
▁share 1
▁minutes 1
gle 1
oco 1
stell 1
▁Coun 1
▁temper 1
keit 1
ський 1
ao 1
▁Long 1
(& 1
кан 1
▁dens 1
But 1
XX 1
DATE 1
gan 1
.). 1
▁entry 1
install 1
▁зна 1
▁Som 1
Command 1
ßen 1
▁starting 1
▁sto 1
IG 1
▁minim 1
▁explicit 1
▁bytes 1
▁party 1
tober 1
▁Grand 1
▁Vor 1
▁leur 1
Document 1
erc 1
ensive 1
CP 1
env 1
▁arguments 1
▁Gran 1
arily 1
▁lin 1
tn 1
(- 1
geq 1
▁Famil 1
▁Бо 1
▁tour 1
▁nav 1
▁properly 1
▁Mrs 1
▁Mel 1
▁scale 1
astic 1
ds 1
▁Sir 1
▁Church 1
}^{\ 1
you 1
/. 1
So 1
▁brought 1
▁role 1
▁Sur 1
▁fond 1
▁ges 1
że 1
eten 1
▁était 1
SER 1
▁которы 1
▁equation 1
aspx 1
▁Afr 1
▁dit 1
empty 1
alement 1
wrap 1
▁Bet 1
▁collect 1
▁git 1
▁vie 1
▁.. 1
рой 1
▁<? 1
▁educ 1
kl 1
ensis 1
▁OR 1
▁Hi 1
▁Cour 1
бы 1
cert 1
▁Ges 1
essor 1
Main 1
▁лю 1
cade 1
dot 1
augh 1
hib 1
▁automatically 1
▁spir 1
present 1
▁February 1
▁Elle 1
custom 1
▁proget 1
▁administr 1
AA 1
▁born 1
▁College 1
athol 1
`) 1
ierre 1
▁ran 1
▁profession 1
ogen 1
}_{\ 1
▁activity 1
▁scroll 1
▁prove 1
ibrary 1
eries 1
Read 1
year 1
▁lang 1
Det 1
▁knew 1
▁protected 1
▁wor 1
▁effic 1
▁rég 1
▁theory 1
▁published 1
real 1
▁Tour 1
▁durante 1
äs 1
▁positive 1
▁forward 1
▁Rel 1
{" 1
park 1
▁Um 1
▁eer 1
enta 1
▁imag 1
ної 1
piel 1
▁jQuery 1
isme 1
chni 1
organ 1
▁args 1
oir 1
heim 1
rian 1
eless 1
uses 1
дин 1
ición 1
▁indust 1
▁wish 1
ány 1
oca 1
▁angular 1
ieved 1
▁occur 1
SELECT 1
onia 1
admin 1
▁Best 1
▁это 1
огра 1
▁loss 1
▁bal 1
▁Рос 1
▁career 1
▁пе 1
IX 1
▁fall 1
▁Rob 1
▁OP 1
ened 1
graphics 1
▁coming 1
Update 1
▁died 1
eden 1
▁abs 1
▁inner 1
▁trav 1
стоя 1
zą 1
ép 1
▁Group 1
▁cel 1
▁stuff 1
▁situation 1
▁${ 1
acle 1
▁purpose 1
▁Fire 1
▁Oh 1
▁Second 1
▁upload 1
ostał 1
ющи 1
Auth 1
▁showing 1
▁completely 1
avel 1
bd 1
▁proced 1
▁Ö 1
control 1
▁thank 1
undred 1
▁tom 1
▁examples 1
▁remember 1
▁рабо 1
▁possib 1
▁detect 1
▁poor 1
▁Op 1
▁century 1
utter 1
▁login 1
unst 1
Output 1
▁otherwise 1
lan 1
тур 1
▁сов 1
▁groups 1
rip 1
▁shell 1
▁district 1
▁records 1
▁siè 1
fortun 1
enty 1
▁Tre 1
▁changing 1
след 1
aught 1
▁deep 1
subset 1
agy 1
endar 1
jax 1
OM 1
El 1
imate 1
ardo 1
▁plot 1
▁visit 1
▁bug 1
▁все 1
▁opened 1
▁repla 1
▁Henry 1
▁pp 1
bas 1
▁dark 1
▁Martin 1
▁resource 1
iling 1
▁watch 1
replace 1
▁release 1
Location 1
▁learning 1
menu 1
▁allows 1
ър 1
Length 1
▁whatever 1
▁pages 1
▁compiler 1
▁также 1
▁Pan 1
command 1
▁road 1
▁unless 1
`? 1
▁discover 1
▁он 1
}] 1
bour 1
▁Could 1
▁regex 1
▁ps 1
CD 1
из 1
▁wife 1
amenti 1
▁fair 1
▁DB 1
▁Cup 1
enen 1
ajax 1
othèque 1
▁seiner 1
icker 1
ám 1
exchange 1
oles 1
IF 1
▁До 1
ohn 1
▁grow 1
▁Thus 1
spec 1
▁hatte 1
#, 1
allel 1
▁rate 1
▁central 1
▁Van 1
iforn 1
Run 1
▁study 1
▁XML 1
▁Che 1
▁beaut 1
mid 1
▁advance 1
Ver 1
тя 1
▁hands 1
▁lay 1
▁š 1
▁OS 1
▁{} 1
Pre 1
▁Hall 1
imp 1
▁sun 1
▁steps 1
▁jud 1
qui 1
▁boot 1
▁%> 1
▁Ва 1
nost 1
▁nem 1
▁pen 1
Open 1
▁church 1
кон 1
▁average 1
▁comments 1
▁corresponding 1
levant 1
▁bed 1
▁meaning 1
Version 1
Link 1
bel 1
▁extract 1
ść 1
▁IV 1
▁Ir 1
▁computer 1
▁affect 1
▁Ста 1
AX 1
sort 1
▁species 1
▁Oper 1
▁hash 1
ches 1
▁Einzeln 1
▁keys 1
▁marzo 1
▁interpret 1
hood 1
▁coordin 1
ös 1
rage 1
etz 1
iza 1
дер 1
üt 1
^* 1
▁modify 1
▁termin 1
▁cred 1
zon 1
ную 1
▁mie 1
▁'' 1
▁Mos 1
▁connected 1
NO 1
▁compile 1
▁"\ 1
▁cat 1
fiddle 1
uta 1
Access 1
▁Sto 1
▁Bur 1
▁north 1
Gamma 1
▁alloc 1
Init 1
▁Link 1
ialize 1
Impl 1
oupe 1
ropri 1
▁Gold 1
▁solo 1
▁Dist 1
,- 1
nav 1
▁alert 1
esis 1
▁Os 1
/// 1
▁feb 1
▁--> 1
foot 1
▁Fried 1
▁Einzelnach 1
▁rev 1
zeit 1
▁Stat 1
▁Seg 1
▁blo 1
wick 1
EL 1
caption 1
header 1
▁president 1
▁multip 1
▁Einzelnachweise 1
▁seine 1
?” 1
Function 1
▁Stand 1
▁Function 1
▁?> 1
▁Bill 1
▁spect 1
▁redirect 1
rupt 1
▁walk 1
вши 1
springframework 1
place 1
ého 1
Entity 1
▁Service 1
inte 1
▁training 1
▁(` 1
фор 1
▁кра 1
aur 1
▁fetch 1
▁† 1
▁même 1
▁(' 1
atively 1
▁execut 1
äch 1
▁Catalogue 1
based 1
Attribute 1
▁spring 1
phone 1
тра 1
▁пи 1
тера 1
▁`\ 1
▁Od 1
One 1
send 1
bon 1
▁° 1
MO 1
▁asking 1
▁où 1
▁ingår 1
▁testing 1
▁фа 1
▁Book 1
imm 1
▁progress 1
bro 1
First 1
▁phot 1
▁ON 1
Template 1
developer 1
annot 1
▁>= 1
mission 1
▁któ 1
pc 1
bach 1
zent 1
ued 1
▁ones 1
ји 1
▁rout 1
▁Ки 1
Post 1
ції 1
▁Vir 1
nek 1
aging 1
▁ок 1
izont 1
▁agosto 1
▁choose 1
<unk6> 1
▁systems 1
loss 1
iente 1
▁Cre 1
▁contra 1
ums 1
▁beginning 1
emy 1
istics 1
▁served 1
Down 1
options 1
▁Govern 1
▁BY 1
▁jest 1
té 1
▁continue 1
pers 1
▁easier 1
▁cos 1
esso 1
>> 1
Net 1
▁Bor 1
▁Cr 1
▁transfer 1
▁CSS 1
▁finns 1
▁хо 1
username 1
▁constru 1
▁pain 1
▁Tem 1
▁specified 1
▁brit 1
ские 1
irk 1
rapper 1
▁counter 1
▁[" 1
oded 1
дан 1
property 1
hard 1
istrict 1
)/ 1
▁Pour 1
▁Where 1
▁=== 1
▁sowie 1
▁Про 1
▁dess 1
▁tras 1
▁уча 1
▁Over 1
note 1
▁America 1
cp 1
▁grande 1
Me 1
)- 1
Mode 1
▁passing 1
▁giving 1
Cl 1
}/ 1
Menu 1
!! 1
angular 1
▁launch 1
varphi 1
▁Johann 1
▁foreach 1
ró 1
sequ 1
ifi 1
Am 1
arp 1
▁buffer 1
▁ni 1
▁mix 1
▁Museum 1
▁meant 1
asi 1
▁kan 1
прав 1
Comp 1
istoire 1
iful 1
jer 1
issions 1
Resource 1
▁воз 1
▁ST 1
▁solutions 1
▁belong 1
▁Associ 1
cf 1
▁Mär 1
▁grid 1
Mult 1
▁requires 1
kk 1
▁teach 1
emeinde 1
▁square 1
▁коман 1
▁Event 1
▁rules 1
▁bur 1
▁eing 1
▁Mai 1
▁nam 1
▁slä 1
hör 1
▁tip 1
▁Literatur 1
▁scope 1
overline 1
▁exit 1
)? 1
bet 1
▁vict 1
Off 1
▁approxim 1
▁Geb 1
ktop 1
heit 1
▁Ю 1
template 1
рон 1
▁uno 1
Serv 1
▁framework 1
operator 1
▁generally 1
▁hundred 1
▁divers 1
ovi 1
▁rés 1
abs 1
▁gal 1
çais 1
▁feet 1
▁virtual 1
czy 1
ску 1
./ 1
hu 1
ancy 1
▁recommend 1
▁під 1
▁money 1
▁versions 1
▁helps 1
▁Hor 1
Items 1
look 1
connect 1
anges 1
ViewController 1
elijk 1
▁occup 1
▁editor 1
auto 1
ög 1
▁seconds 1
▁obvious 1
vm 1
akes 1
▁gegen 1
▁til 1
jection 1
лення 1
▁operations 1
▁East 1
ogy 1
▁Polit 1
uten 1
▁Joseph 1
"` 1
▁Company 1
▁callback 1
▁sen 1
cción 1
▁associated 1
▁containing 1
▁practice 1
elijke 1
oke 1
éra 1
uns 1
anta 1
vey 1
zu 1
▁Bes 1
▁Flor 1
mem 1
ycz 1
▁architect 1
▁anni 1
▁contact 1
YPE 1
▁Cas 1
▁полу 1
ovo 1
▁bring 1
▁concept 1
▁js 1
▁Referencias 1
emble 1
▁н 1
▁supported 1
Big 1
▁Hans 1
erv 1
▁Maj 1
▁arriv 1
▁Have 1
▁probability 1
▁Pop 1
▁Pass 1
token 1
Provider 1
▁Ra 1
Reader 1
ooth 1
lap 1
▁assist 1
adow 1
▁tests 1
сси 1
▁king 1
langle 1
▁Sum 1
OIN 1
▁security 1
nis 1
../ 1
▁basic 1
unity 1
`: 1
▁кото 1
kow 1
▁Bibliothèque 1
asion 1
alo 1
ifest 1
▁novembre 1
▁peu 1
▁Ж 1
enschaft 1
clus 1
ју 1
Height 1
ún 1
▁tur 1
▁ideas 1
▁ces 1
frak 1
▁premier 1
itation 1
▁sé 1
HTML 1
▁Royal 1
ської 1
▁byte 1
PS 1
▁segu 1
inen 1
▁Great 1
▁Ку 1
▁external 1
Title 1
Top 1
Process 1
ität 1
▁`/ 1
▁secret 1
pository 1
▁potential 1
▁Bud 1
names 1
asons 1
stackexchange 1
background 1
пер 1
сов 1
after 1
▁pero 1
▁software 1
▁sed 1
▁arrays 1
tmp 1
▁asp 1
scale 1
▁Lat 1
anal 1
▁gem 1
PU 1
▁Altri 1
That 1
▁Ни 1
ifact 1
Address 1
▁south 1
▁formula 1
▁Colleg 1
▁ін 1
ktion 1
▁sac 1
SH 1
ajo 1
etc 1
vc 1
`]( 1
▁Dur 1
▁Ме 1
▁Smith 1
items 1
CK 1
elo 1
▁plugin 1
▁serie 1
ienne 1
▁или 1
Mar 1
▁Image 1
got 1
andas 1
▁matches 1
▁worth 1
▁Deb 1
▁cache 1
▁felt 1
ersch 1
izes 1
Oper 1
▁Jahre 1
▁commune 1
thread 1
▁ny 1
dec 1
ouw 1
▁surface 1
▁Por 1
▁Street 1
при 1
▁candid 1
▁Return 1
▁Kom 1
gru 1
▁ти 1
[\ 1
▁depends 1
▁influ 1
▁towards 1
ained 1
▁rank 1
▁Januar 1
▁components 1
gest 1
getElementById 1
▁checked 1
airs 1
join 1
▁dead 1
▁hit 1
ény 1
▁equivalent 1
▁Пре 1
▁appropri 1
Pass 1
▁primer 1
englisch 1
▁appar 1
▁During 1
▁knowledge 1
▁trigger 1
▁core 1
▁Ol 1
▁Produ 1
▁Fern 1
▁нача 1
Te 1
▁Mot 1
erve 1
тво 1
▁mid 1
▁finally 1
aires 1
▁especially 1
▁tut 1
▁receive 1
adre 1
▁neigh 1
ktet 1
ilde 1
▁radio 1
▁driver 1
лись 1
endencies 1
▁IE 1
▁saved 1
ffect 1
▁Wayback 1
iat 1
▁padding 1
window 1
тиче 1
▁mur 1
actor 1
▁Han 1
ональ 1
▁gar 1
▁familjen 1
ós 1
▁nationale 1
▁pré 1
ded 1
onal 1
▁President 1
▁\, 1
▁placed 1
erni 1
▁signal 1
nab 1
hm 1
Mon 1
▁vs 1
SC 1
▁progetti 1
▁Ü 1
▁forms 1
▁messages 1
inf 1
users 1
GET 1
▁dels 1
Collection 1
▁Good 1
▁Maybe 1
▁compr 1
▁larger 1
gres 1
aper 1
▁При 1
undes 1
▁sea 1
▁Spring 1
ulo 1
▁mechan 1
▁sans 1
GB 1
Valid 1
▁communic 1
▁pra 1
vier 1
▁Се 1
▁ain 1
тура 1
kom 1
skiego 1
ково 1
adata 1
▁Ре 1
▁boolean 1
sets 1
▁effort 1
.[ 1
▁został 1
PA 1
▁Vict 1
SD 1
ował 1
▁emb 1
▁prima 1
▁hour 1
subsection 1
▁Fort 1
mathfrak 1
igin 1
GL 1
)+ 1
fi 1
▁anci 1
▁pan 1
\) 1
▁lug 1
▁deploy 1
domain 1
▁slight 1
JSON 1
▁morning 1
▁hi 1
▁compare 1
ije 1
▁blue 1
▁Ac 1
▁middle 1
anden 1
▁shared 1
▁Camp 1
▁Á 1
ounded 1
uw 1
ierung 1
Stack 1
▁eines 1
▁Da 1
lij 1
enti 1
▁й 1
Util 1
▁experience 1
▁await 1
uls 1
▁requests 1
▁impos 1
▁constraint 1
Change 1
emph 1
бер 1
▁Another 1
Custom 1
▁significant 1
cr 1
▁million 1
reek 1
▁dalla 1
▁Germ 1
otal 1
ateur 1
btn 1
▁thinking 1
▁interval 1
onne 1
▁liv 1
(): 1
▁Ве 1
oe 1
▁Ev 1
meta 1
▁broad 1
Rem 1
apply 1
▁couple 1
▁techni 1
idades 1
▁goal 1
▁CD 1
hab 1
▁explan 1
anner 1
▁Because 1
blog 1
includegraphics 1
▁voice 1
▁Map 1
vention 1
Session 1
▁Liens 1
▁sor 1
category 1
ashington 1
▁März 1
pop 1
illet 1
▁zwei 1
▁Lie 1
Null 1
address 1
▁factor 1
▁ligne 1
▁HTTP 1
▁suf 1
▁personal 1
cip 1
▁Dar 1
▁adm 1
кой 1
▁Ext 1
▁god 1
aa 1
Right 1
été 1
▁dynamic 1
▁maintain 1
tor 1
######## 1
▁Fra 1
▁choice 1
▁сто 1
СР 1
▁Feder 1
ston 1
▁flag 1
kit 1
Module 1
▁спо 1
▁Stra 1
icks 1
▁haven 1
▁Mass 1
▁Emp 1
▁Pi 1
▁Pen 1
Rect 1
▁Kr 1
itat 1
eler 1
ября 1
itet 1
▁Start 1
▁produced 1
▁пол 1
(_ 1
▁delet 1
▁hot 1
▁Geschichte 1
~~ 1
▁months 1
▁tod 1
▁ни 1
ús 1
temp 1
▁Dez 1
ypes 1
▁cui 1
ommun 1
actions 1
▁eigen 1
▁immediately 1
PL 1
▁Го 1
▁Bal 1
ље 1
ului 1
▁online 1
▁años 1
▁namespace 1
▁mond 1
▁Base 1
▁Canada 1
etzt 1
}- 1
▁defin 1
▁doubt 1
▁investig 1
views 1
▁Line 1
▁stage 1
ettings 1
ubre 1
float 1
▁Play 1
▁Las 1
ptr 1
▁becomes 1
estamp 1
▁independent 1
▁analysis 1
▁Look 1
lain 1
▁рас 1
Reference 1
▁sorry 1
▁supposed 1
ût 1
▁degree 1
utz 1
MM 1
▁desired 1
ły 1
▁len 1
▁alone 1
signed 1
▁Sta 1
Person 1
▁applied 1
▁Back 1
▁mars 1
Part 1
▁Did 1
▁externes 1
▁np 1
ongo 1
▁esta 1
Block 1
▁pou 1
adores 1
▁Studio 1
.$ 1
▁reached 1
bot 1
▁Juni 1
tons 1
itel 1
▁Gar 1
▁articles 1
▁District 1
▁trouble 1
lide 1
▁Found 1
ád 1
▁equip 1
▁internal 1
'], 1
▁async 1
UB 1
gel 1
▁ai 1
ensure 1
▁appeared 1
▁$_ 1
▁maximum 1
▁Си 1
рь 1
▁announ 1
лась 1
▁cm 1
ган 1
aupt 1
▁latter 1
▁platform 1
▁dra 1
▁capital 1
▁solved 1
riz 1
edic 1
▁Mur 1
▁Top 1
тся 1
Panel 1
rule 1
etic 1
▁Ren 1
▁Wikimedia 1
▁TO 1
second 1
isl 1
▁hy 1
▁niet 1
▁loaded 1
dig 1
▁mayo 1
[: 1
Acc 1
▁bek 1
нию 1
login 1
tx 1
▁Fur 1
▁Santa 1
azz 1
▁conduct 1
▁India 1
Order 1
irth 1
tw 1
}+ 1
▁wieder 1
▁Edu 1
AV 1
▁``` 1
▁manually 1
▁Read 1
fortunately 1
▁Run 1
▁Award 1
▁Foot 1
*) 1
params 1
пі 1
▁native 1
rift 1
▁ä 1
ATH 1
▁yourself 1
▁prior 1
▁cit 1
äh 1
▁treat 1
▁meas 1
ributed 1
▁clar 1
card 1
ROR 1
illes 1
▁layer 1
auer 1
▁rat 1
bernate 1
▁stato 1
▁China 1
▁$('# 1
▁naar 1
zip 1
▁${\ 1
▁appreciated 1
▁име 1
ży 1
▁przez 1
▁Indian 1
▁Tod 1
▁Source 1
▁други 1
internal 1
ionale 1
Product 1
▁Men 1
▁upper 1
▁Every 1
},\ 1
▁printf 1
▁continued 1
▁nodes 1
лки 1
▁nice 1
modules 1
eign 1
▁Mex 1
▁According 1
▁undefined 1
▁binary 1
cut 1
Current 1
edy 1
}}{ 1
bles 1
▁вой 1
scri 1
eqn 1
Changed 1
▁köz 1
▁remote 1
вля 1
▁quel 1
▁align 1
▁пар 1
SV 1
yer 1
▁Californ 1
▁places 1
▁primary 1
▁conv 1
▁Juli 1
▁visual 1
▁Select 1
atory 1
=( 1
iser 1
▁intent 1
sur 1
container 1
iced 1
▁board 1
astr 1
omial 1
вет 1
зва 1
▁cru 1
▁Oktober 1
save 1
▁greater 1
▁inn 1
▁picture 1
▁То 1
▁obtained 1
Wikimedia 1
úblic 1
▁lors 1
▁mont 1
obre 1
▁civil 1
▁construction 1
▁Welt 1
▁Under 1
undert 1
▁edge 1
▁Liste 1
csv 1
▁experiment 1
localhost 1
▁Edit 1
greg 1
ová 1
ља 1
msg 1
▁Green 1
Dialog 1
Ident 1
▁JS 1
^{( 1
▁släktet 1
____ 1
Project 1
▁beskre 1
▁ber 1
▁wouldn 1
▁react 1
Hel 1
zw 1
▁Washington 1
orie 1
task 1
▁category 1
▁artist 1
anno 1
▁ook 1
ammen 1
▁Minister 1
▁declar 1
▁Key 1
,. 1
▁mach 1
▁ww 1
isen 1
Fran 1
▁Росси 1
бор 1
три 1
▁rock 1
quis 1
mos 1
пера 1
▁esterni 1
▁gold 1
Windows 1
%% 1
▁partial 1
▁weight 1
▁spr 1
}). 1
▁français 1
fun 1
▁thous 1
holder 1
▁gone 1
▁Č 1
▁rend 1
DA 1
▁answered 1
▁False 1
Buffer 1
▁daugh 1
.-- 1
▁Show 1
▁rect 1
▁Kre 1
dr 1
osoph 1
▁yield 1
urity 1
toString 1
aval 1
Pol 1
▁lock 1
imation 1
antic 1
Local 1
▁beskrevs 1
ités 1
grid 1
ут 1
▁_{ 1
сі 1
FILE 1
▁км 1
▁speak 1
summary 1
prop 1
javascript 1
zk 1
izontal 1
▁trois 1
▁Rod 1
prise 1
рово 1
▁odd 1
▁gest 1
▁produce 1
▁waar 1
▁Av 1
ribu 1
вання 1
▁finished 1
▁adapt 1
▁Sar 1
textit 1
▁Ce 1
▁Fa 1
osen 1
▁deriv 1
▁ship 1
▁opin 1
▁Even 1
gesch 1
▁suppose 1
▁Fer 1
ское 1
▁worden 1
sey 1
hline 1
▁Union 1
▁/** 1
▁vez 1
▁Collegamenti 1
▁Society 1
▁econom 1
ší 1
oi 1
▁orient 1
▁Teil 1
rent 1
лекс 1
▁solid 1
▁cart 1
**************** 1
▁cab 1
▁Message 1
dots 1
▁ég 1
▁twe 1
aga 1
▁naz 1
▁Microsoft 1
▁underarter 1
ppen 1
▁recent 1
▁net 1
▁resources 1
Ste 1
.\ 1
▁SO 1
лом 1
▁cele 1
▁lic 1
▁benef 1
ldots 1
▁serial 1
Integer 1
cles 1
▁miles 1
▁Ale 1
▁entered 1
▁Two 1
wie 1
▁includes 1
▁Each 1
elling 1
quer 1
▁Dom 1
pf 1
WS 1
▁straight 1
▁Stan 1
▁nos 1
ícul 1
atro 1
▁Center 1
FT 1
▁Inga 1
ilo 1
▁www 1
jsfiddle 1
nic 1
▁European 1
▁commer 1
▁girl 1
total 1
▁Star 1
▁suggested 1
pal 1
▁zwischen 1
писа 1
IM 1
▁handler 1
▁Program 1
xsl 1
ály 1
BU 1
,-- 1
▁vid 1
▁established 1
▁Spiel 1
ometry 1
unes 1
▁sit 1
▁inher 1
▁puis 1
▁être 1
▁Most 1
Header 1
insert 1
▁sist 1
▁favor 1
dest 1
▁entity 1
Cal 1
▁Therefore 1
DD 1
;; 1
▁Dezember 1
▁Rh 1
iments 1
▁returning 1
sto 1
▁Value 1
▁liber 1
▁Result 1
▁bind 1
voir 1
▁Tim 1
▁Movie 1
weg 1
ket 1
▁исто 1
▁friends 1
▁fn 1
▁él 1
▁&= 1
arden 1
fficial 1
▁community 1
▁api 1
Args 1
ieren 1
▁dann 1
omorph 1
adr 1
loop 1
uman 1
▁vous 1
bst 1
submit 1
\| 1
тин 1
Container 1
asket 1
?) 1
Sec 1
▁drive 1
Ass 1
▁swe 1
▁amer 1
▁mine 1
▁Ham 1
▁avait 1
▁Hon 1
▁après 1
▁Mann 1
ська 1
▁increase 1
▁ty 1
sky 1
▁accur 1
article 1
weight 1
▁sex 1
▁listade 1
/** 1
▁está 1
}}$ 1
argo 1
define 1
▁состав 1
session 1
ads 1
стви 1
▁Law 1
▁dialog 1
▁duplicate 1
▁ép 1
▁voc 1
fri 1
▁green 1
▁hidden 1
▁Island 1
▁diag 1
owej 1
mysql 1
teil 1
rä 1
ikan 1
▁José 1
aled 1
Runtime 1
▁train 1
▁Division 1
ниц 1
▁Span 1
нима 1
)=\ 1
тан 1
▁stay 1
▁foo 1
▁accom 1
▁hers 1
▁нау 1
▁Mün 1
ideos 1
static 1
▁ready 1
]` 1
▁visible 1
▁Hope 1
ulated 1
▁Cult 1
стро 1
Co 1
▁smaller 1
atura 1
▁perfectly 1
req 1
▁proposed 1
▁degli 1
Search 1
▁ich 1
Max 1
▁volume 1
execute 1
gre 1
▁sport 1
udad 1
PT 1
▁Records 1
▁cook 1
▁expand 1
бі 1
▁altri 1
ppet 1
arse 1
▁wet 1
▁Bob 1
▁FC 1
▁Association 1
uje 1
▁fel 1
▁слу 1
▁Big 1
/\ 1
Ge 1
while 1
{( 1
▁sufficient 1
Position 1
▁understanding 1
▁nue 1
▁raz 1
▁ye 1
hem 1
Num 1
▁Project 1
▁Its 1
▁hasta 1
enso 1
▁wire 1
Ret 1
uj 1
proof 1
▁relevant 1
▁partir 1
▁ago 1
ificate 1
▁domin 1
▁boy 1
▁plant 1
▁encoding 1
▁throws 1
▁Rock 1
zone 1
gang 1
widget 1
▁interesting 1
DER 1
▁demon 1
▁office 1
amt 1
äter 1
▁White 1
▁versch 1
▁dieser 1
▁Mount 1
▁students 1
▁Pub 1
▁Де 1
ija 1
▁Cy 1
▁California 1
▁abril 1
äll 1
▁чем 1
TV 1
▁més 1
▁declared 1
▁ю 1
ől 1
appa 1
▁Бе 1
echo 1
numer 1
▁posted 1
▁вер 1
▁године 1
▁weak 1
▁Republic 1
▁champion 1
ensuremath 1
your 1
▁Ober 1
▁Central 1
isa 1
анд 1
yy 1
▁fully 1
▁SD 1
▁Linux 1
▁Scott 1
partment 1
kon 1
▁contract 1
▁OF 1
▁ale 1
▁Ann 1
▁над 1
lah 1
▁Next 1
oren 1
▁disk 1
▁eg 1
atu 1
логи 1
▁games 1
Left 1
▁lu 1
▁finite 1
▁ки 1
▁crash 1
pher 1
exe 1
ATION 1
▁brother 1
Eng 1
tat 1
▁Integer 1
ному 1
▁colon 1
iqu 1
)). 1
ivi 1
▁Method 1
arten 1
Uni 1
vector 1
▁wood 1
рт 1
▁Ле 1
▁siècle 1
▁gent 1
<unk7> 1
▁contents 1
▁compan 1
Go 1
▁jou 1
uent 1
Async 1
printf 1
▁Model 1
▁kept 1
ASE 1
▁provides 1
▁Abgerufen 1
▁Gall 1
▁Alf 1
SA 1
▁Mem 1
▁kter 1
▁Bru 1
Android 1
(: 1
▁Украї 1
Ne 1
Min 1
atr 1
▁Hal 1
delete 1
odo 1
▁não 1
ène 1
▁calculate 1
Json 1
keys 1
ней 1
▁hence 1
▁ow 1
▁Lib 1
eno 1
▁Love 1
osi 1
wide 1
▁score 1
full 1
вод 1
▁determine 1
▁spaces 1
лова 1
▁peut 1
éral 1
ół 1
▁appoint 1
▁Tw 1
<? 1
▁Order 1
▁hop 1
random 1
cache 1
▁destroy 1
▁race 1
Tag 1
▁rid 1
▁negative 1
Car 1
ensional 1
dk 1
▁cro 1
▁THEN 1
▁$. 1
ensk 1
NE 1
HO 1
▁kle 1
ospital 1
kte 1
férences 1
udes 1
IR 1
otion 1
▁Real 1
▁Februar 1
ин 1
▁Old 1
кого 1
leich 1
▁р 1
ían 1
▁га 1
cide 1
lab 1
▁pull 1
▁'/ 1
Long 1
,$ 1
▁appropriate 1
▁была 1
führ 1
▁Media 1
▁manner 1
▁Ге 1
description 1
Bean 1
▁Lar 1
']; 1
▁relation 1
▁Sorry 1
har 1
cpp 1
▁Ko 1
▁execution 1
inos 1
▁bul 1
grade 1
▁Mu 1
▁pil 1
writ 1
ifications 1
inese 1
▁Phili 1
dx 1
▁leading 1
▁Journal 1
oved 1
▁contro 1
нова 1
Yes 1
▁channel 1
)), 1
isten 1
aka 1
ToString 1
mas 1
▁ett 1
▁forces 1
ulations 1
▁Call 1
▁explanation 1
oring 1
ATA 1
chter 1
when 1
VC 1
▁Jahrh 1
Case 1
▁commands 1
▁rich 1
bus 1
Fe 1
mbox 1
▁recon 1
ño 1
▁shape 1
owy 1
entry 1
itable 1
▁election 1
ється 1
▁prep 1
vá 1
▁infin 1
lot 1
▁books 1
▁USA 1
лин 1
▁pom 1
▁nas 1
▁tags 1
▁executed 1
aille 1
lung 1
▁JavaScript 1
▁ball 1
▁ainsi 1
▁Pri 1
{$ 1
▁UN 1
▁Ram 1
▁hear 1
▁Ubuntu 1
>(); 1
▁pure 1
▁embed 1
ação 1
controller 1
▁married 1
▁Fol 1
famil 1
▁prec 1
▁recurs 1
pad 1
istration 1
▁respectively 1
[$ 1
autor 1
▁grav 1
iera 1
azioni 1
▁Bul 1
▁Australia 1
mond 1
▁Tro 1
▁Ele 1
packages 1
msdn 1
▁Als 1
▁przy 1
ART 1
▁charge 1
▁applications 1
Unit 1
aren 1
▁sudden 1
ometer 1
▁dot 1
acji 1
ктор 1
imin 1
ening 1
▁donde 1
▁Ho 1
tree 1
mb 1
▁drag 1
aje 1
▁invalid 1
▁finish 1
laim 1
▁feed 1
▁Nap 1
room 1
images 1
▁сай 1
▁succ 1
iffer 1
▁año 1
▁cual 1
мери 1
DR 1
▁Bilder 1
бра 1
rait 1
pan 1
ень 1
▁distinct 1
▁Kn 1
önig 1
anced 1
▁loading 1
▁Techn 1
▁Sel 1
mus 1
▁rail 1
▁student 1
▁notice 1
▁sla 1
▁Да 1
▁guard 1
▁Day 1
вали 1
Option 1
aison 1
ipp 1
▁Jun 1
▁fell 1
▁absolute 1
ове 1
debug 1
▁Sud 1
пы 1
ugins 1
▁views 1
lay 1
▁surr 1
▁stood 1
▁ві 1
selected 1
гі 1
▁attributes 1
final 1
enda 1
▁Bon 1
ners 1
▁Wer 1
bur 1
ittel 1
▁moving 1
▁Plan 1
isches 1
Java 1
▁basis 1
▁Bus 1
▁Au 1
▁Ill 1
▁время 1
▁цент 1
handle 1
ступ 1
▁Far 1
▁oraz 1
ocr 1
▁seit 1
onder 1
дом 1
:/ 1
chor 1
▁Town 1
▁definit 1
react 1
▁piece 1
▁Karl 1
CI 1
▁Application 1
unter 1
▁formed 1
▁пу 1
Bo 1
▁Daniel 1
▁пла 1
Body 1
})$ 1
▁были 1
▁earth 1
гла 1
There 1
▁стра 1
▁ville 1
▁centre 1
<unk8> 1
▁helpful 1
▁++ 1
▁CG 1
izione 1
▁Game 1
▁Which 1
▁pip 1
▁Portug 1
DS 1
▁describe 1
▁checking 1
▁manager 1
BO 1
▁Bundes 1
buch 1
▁decided 1
▁Jahrhundert 1
▁fif 1
efficient 1
anci 1
braries 1
▁fails 1
▁kernel 1
▁Gl 1
▁Nacional 1
▁proceed 1
▁fuer 1
▁living 1
▁successfully 1
▁faster 1
▁contre 1
▁prison 1
ORT 1
help 1
▁autor 1
ław 1
ają 1
▁Arm 1
▁provin 1
▁naam 1
/# 1
sed 1
▁gesch 1
▁мар 1
esk 1
term 1
▁Tex 1
iring 1
▁tools 1
PDF 1
▁ult 1
issenschaft 1
▁couldn 1
ding 1
Dep 1
{- 1
▁predict 1
antage 1
▁Like 1
▁Би 1
tools 1
estra 1
▁ki 1
▁Jim 1
star 1
▁remark 1
óg 1
nabla 1
▁Although 1
mode 1
Host 1
▁strange 1
None 1
black 1
▁Festival 1
▁IS 1
anza 1
▁(- 1
icket 1
кола 1
▁Jes 1
▁flex 1
▁À 1
▁Network 1
▁EX 1
▁enero 1
!” 1
▁Ort 1
▁alors 1
▁Original 1
▁zo 1
ными 1
▁spl 1
Draw 1
yond 1
── 1
▁Ot 1
▁dram 1
▁division 1
▁efficient 1
▁Га 1
▁vier 1
nak 1
LS 1
▁spirit 1
zeichnet 1
▁dici 1
clear 1
copy 1
yar 1
▁році 1
usqu 1
▁nous 1
▁blev 1
жде 1
Arg 1
▁performed 1
▁Make 1
▁Carol 1
etto 1
▁Sand 1
▁Disc 1
Enc 1
rero 1
hash 1
▁focus 1
▁attention 1
▁agre 1
▁divis 1
▁было 1
▁ej 1
▁march 1
▁phase 1
ías 1
▁phil 1
▁Pap 1
▁river 1
▁caused 1
plugin 1
▁Team 1
uler 1
▁$("# 1
iej 1
ISBN 1
nam 1
▁fight 1
vid 1
▁Lud 1
Selected 1
:@" 1
▁Pod 1
▁années 1
arios 1
▁deutscher 1
▁NA 1
▁ию 1
▁dictionary 1
▁Ла 1
▁Tri 1
èn 1
▁political 1
ridge 1
atten 1
▁circle 1
▁transport 1
emas 1
FC 1
▁replaced 1
▁Aud 1
iska 1
Configuration 1
▁soort 1
▁Не 1
▁sequ 1
PRO 1
▁bud 1
▁{{ 1
ließ 1
▁Mas 1
ders 1
usammen 1
esa 1
▁Ly 1
вро 1
mac 1
▁испо 1
▁suc 1
uy 1
▁illustr 1
▁primera 1
ilation 1
▁storage 1
▁params 1
kaz 1
▁terminal 1
раль 1
▁holds 1
лось 1
▁nad 1
”. 1
▁octubre 1
bul 1
▁hus 1
ULT 1
▁également 1
▁Mill 1
ład 1
▁contiene 1
"? 1
▁>>> 1
Que 1
   1
▁plain 1
ativa 1
ocker 1
Names 1
▁Jud 1
▁agree 1
▁Gemeinde 1
lare 1
каза 1
▁starts 1
▁price 1
Target 1
cus 1
▁Instead 1
.; 1
▁alternative 1
▁вла 1
IE 1
▁organiz 1
inu 1
▁completed 1
▁carry 1
atom 1
▁depending 1
▁Our 1
▁insp 1
▁&\ 1
aily 1
irection 1
фа 1
▁defe 1
TAC 1
▁designed 1
▁voir 1
break 1
▁partie 1
▁Jahren 1
▁studio 1
▁jour 1
▁Notes 1
fire 1
house 1
success 1
▁Juan 1
JS 1
▁Custom 1
▁besch 1
▁stated 1
bootstrap 1
ött 1
ozzá 1
▁CON 1
hav 1
▁sleep 1
eda 1
hot 1
ánd 1
▁Sy 1
▁temps 1
amar 1
▁scal 1
▁ast 1
▁opening 1
clipse 1
▁programming 1
▁letters 1
▁profile 1
nah 1
▁beyond 1
▁Further 1
faces 1
▁chart 1
зда 1
aign 1
ній 1
▁Rol 1
овано 1
terior 1
wed 1
▁herself 1
▁ng 1
anguages 1
}=\ 1
ynamic 1
▁jug 1
▁Example 1
▁(† 1
▁playing 1
▁usage 1
▁managed 1
▁Natur 1
тери 1
▁Et 1
eria 1
▁daughter 1
нием 1
Fragment 1
▁hol 1
Fl 1
ографи 1
▁ihn 1
üh 1
instance 1
▁comun 1
▁truth 1
▁само 1
▁implemented 1
▁anyway 1
▁Cro 1
фе 1
GC 1
ubuntu 1
types 1
ês 1
.~\ 1
fold 1
▁joined 1
?? 1
▁mé 1
▁wild 1
клю 1
rowser 1
▁Home 1
skiej 1
▁JOIN 1
▁juin 1
hof 1
▁dataset 1
жду 1
')) 1
▁miejs 1
API 1
▁edited 1
ools 1
▁seeing 1
ijd 1
▁procedure 1
▁Bras 1
▁signed 1
▁externos 1
▁disapp 1
▁Direct 1
cyc 1
▁consult 1
örd 1
Widget 1
cious 1
sect 1
▁Ди 1
▁wind 1
▁Archivado 1
aml 1
сс 1
Wh 1
kbd 1
▁Army 1
▁suffer 1
artifact 1
▁resolve 1
▁Sport 1
▁це 1
idas 1
▁tax 1
idi 1
▁actions 1
пра 1
pués 1
▁naj 1
False 1
▁chance 1
▁тако 1
äd 1
▁dol 1
▁env 1
▁basically 1
▁Council 1
zte 1
▁displayed 1
nil 1
complete 1
▁Lem 1
iance 1
▁основ 1
▁depend 1
plom 1
ensus 1
uts 1
▁Hot 1
bitr 1
▁validation 1
abb 1
▁тре 1
km 1
zd 1
öff 1
WE 1
▁interested 1
▁{" 1
aro 1
▁correl 1
▁dedic 1
▁lists 1
▁Bibliografia 1
▁earlier 1
program 1
▁première 1
front 1
Tab 1
ству 1
drop 1
▁fear 1
▁Enlaces 1
▁Capt 1
▁realiz 1
▁hal 1
▁instances 1
▁susp 1
illing 1
%; 1
{} 1
|| 1
▁partition 1
▁Build 1
▁wo 1
▁Пер 1
▁director 1
▁Sin 1
тия 1
rsg 1
ouver 1
▁nearly 1
oda 1
ктив 1
▁sir 1
IME 1
▁janvier 1
▁Win 1
Build 1
ieurs 1
INE 1
double 1
Last 1
▁policy 1
store 1
▁observed 1
▁familie 1
nica 1
rey 1
зь 1
▁Year 1
▁developed 1
▁Institute 1
▁reply 1
Comple 1
ician 1
▁Guer 1
▁dall 1
▁desp 1
▁Football 1
Empty 1
cken 1
unda 1
▁Ur 1
▁ig 1
▁Atl 1
author 1
▁Bol 1
zig 1
nat 1
št 1
security 1
onic 1
▁pes 1
itan 1
▁Extern 1
jan 1
VAL 1
▁им 1
bold 1
▁ва 1
▁Мо 1
▁disput 1
▁trick 1
▁ped 1
)^{ 1
into 1
Sim 1
▁parallel 1
fox 1
normal 1
inent 1
педи 1
hold 1
OK 1
▁chem 1
▁twice 1
▁username 1
ič 1
▁representation 1
▁journal 1
▁:- 1
▁batt 1
\% 1
▁certainly 1
▁Exception 1
eps 1
shot 1
ategy 1
Show 1
▁Carl 1
rig 1
▁reported 1
bottom 1
TF 1
▁Francisco 1
nap 1
▁Championship 1
▁court 1
▁sources 1
iour 1
▁conserv 1
dict 1
▁Ру 1
IB 1
▁Ve 1
▁№ 1
▁ER 1
")); 1
▁Point 1
azine 1
▁internet 1
дна 1
▁carried 1
▁Field 1
axis 1
▁Sun 1
▁ave 1
пис 1
ян 1
asy 1
▁julio 1
▁depuis 1
▁suggestion 1
[[ 1
▁Archive 1
ęp 1
▁Pra 1
reh 1
▁demonstr 1
фі 1
cmd 1
▁wasn 1
▁phone 1
upload 1
aya 1
тора 1
lines 1
▁indu 1
▁vot 1
▁espa 1
▁bin 1
▁после 1
plan 1
▁junio 1
orial 1
free 1
sterreich 1
▁ду 1
▁linked 1
▁enable 1
PC 1
▁density 1
▁Egy 1
yo 1
endre 1
▁съ 1
▁italiano 1
▁AR 1
▁Pers 1
férés 1
▁скла 1
Var 1
▁Once 1
Red 1
buffer 1
▁Enter 1
▁Š 1
imiento 1
Store 1
▁health 1
vat 1
IST 1
Oh 1
▁kw 1
▁riv 1
▁somewhere 1
ografie 1
private 1
кти 1
▁delay 1
▁Http 1
job 1
rael 1
empor 1
▁diciembre 1
ête 1
цу 1
▁commit 1
oso 1
Values 1
▁headers 1
transform 1
▁processing 1
rå 1
▁Ah 1
▁Node 1
------------ 1
▁faire 1
▁hun 1
Player 1
▁review 1
гда 1
▁limited 1
▁Property 1
▁serve 1
riage 1
▁Master 1
▁kann 1
crete 1
phere 1
ёр 1
▁chief 1
▁scene 1
kin 1
▁uniform 1
▁febrero 1
"} 1
illo 1
ITE 1
ouvel 1
usepackage 1
enth 1
▁quickly 1
Lambda 1
xes 1
▁cells 1
rog 1
amin 1
▁Мар 1
▁mayor 1
player 1
++; 1
▁Насе 1
▁safe 1
▁veloc 1
▁обра 1
Database 1
neh 1
Vert 1
▁fle 1
▁фор 1
▁foreign 1
Abstract 1
▁magn 1
▁modified 1
▁military 1
▁monde 1
▁Action 1
▁bank 1
Serial 1
▁continuous 1
▁gel 1
▁physical 1
▁introduced 1
uture 1
rick 1
▁presented 1
▁Prov 1
▁Both 1
Pos 1
super 1
&# 1
▁finding 1
nel 1
unde 1
▁från 1
skim 1
▁Hill 1
fn 1
▁Canad 1
▁intended 1
ozzáférés 1
▁juillet 1
▁Wars 1
▁successful 1
▁charg 1
iele 1
omething 1
oku 1
fetch 1
▁}} 1
bank 1
operatorname 1
▁Color 1
▁Card 1
tu 1
▁", 1
wid 1
▁gep 1
XML 1
================ 1
▁Virgin 1
ährend 1
licated 1
Dir 1
zero 1
▁Kal 1
▁Party 1
▁å 1
price 1
don 1
▁warning 1
▁Bad 1
▁Supp 1
▁Liga 1
▁Pierre 1
Record 1
ulator 1
▁Rome 1
▁theorem 1
▁entirely 1
ским 1
het 1
▁dopo 1
Next 1
mlung 1
wig 1
▁Ath 1
▁Sou 1
licher 1
▁sudo 1
ests 1
хів 1
▁septiembre 1
▁micro 1
▁trop 1
fit 1
Core 1
▁Radio 1
▁Organ 1
▁Power 1
CF 1
▁Last 1
▁oppos 1
▁offset 1
▁regia 1
▁minimum 1
▁helped 1
andon 1
ifying 1
ruit 1
enschapp 1
▁bere 1
VM 1
▁Awards 1
▁agr 1
ynomial 1
enced 1
▁devices 1
▁bot 1
▁firm 1
▁writer 1
▁ring 1
.- 1
istes 1
lä 1
▁mel 1
entation 1
▁Schw 1
▁nome 1
▁pobla 1
▁woj 1
▁ul 1
ento 1
ых 1
▁resist 1
▁remains 1
▁Ca 1
aña 1
▁Court 1
utable 1
entially 1
▁trat 1
▁Visual 1
▁restrict 1
▁previously 1
cation 1
▁осо 1
▁MySQL 1
för 1
cala 1
▁culture 1
live 1
▁accepted 1
Did 1
▁hous 1
▁selection 1
▁decre 1
margin 1
urb 1
▁Inc 1
▁Many 1
ibt 1
▁succeed 1
Binding 1
cí 1
▁Rog 1
▁shouldn 1
cloud 1
▁dz 1
вав 1
▁pix 1
small 1
▁projects 1
▁OK 1
▁latest 1
▁references 1
Program 1
▁erst 1
▁як 1
▁kam 1
▁Camb 1
ellt 1
öd 1
none 1
▁jusqu 1
king 1
▁Ped 1
assert 1
CS 1
rito 1
essa 1
лько 1
▁Von 1
▁Edward 1
▁impossible 1
np 1
words 1
ielt 1
▁Page 1
lers 1
▁pier 1
▁области 1
ittee 1
▁([ 1
▁trust 1
NG 1
redu 1
<< 1
rial 1
▁products 1
▁Ern 1
rière 1
гов 1
▁Reich 1
▁Road 1
▁nested 1
Display 1
▁strength 1
ografía 1
▁announced 1
▁Science 1
▁райо 1
Parameter 1
▁Task 1
uments 1
▁adopt 1
▁Only 1
ють 1
▁cli 1
▁lem 1
stood 1
▁FI 1
ências 1
ponents 1
]$ 1
comment 1
▁ya 1
should 1
ike 1
tim 1
ellig 1
▁sending 1
▁ajax 1
▁noviembre 1
umes 1
▁weiter 1
▁Dans 1
opp 1
▁septembre 1
otimes 1
ző 1
▁ep 1
vere 1
▁oh 1
:= 1
▁Song 1
”, 1
▁viv 1
▁queries 1
▁vá 1
▁décembre 1
▁unable 1
▁erh 1
▁`- 1
▁Lee 1
▁ersten 1
ôt 1
стве 1
TS 1
▁fragment 1
▁wide 1
▁suff 1
▁dut 1
▁Vere 1
іс 1
ading 1
iego 1
icago 1
▁Argent 1
orer 1
ennes 1
▁Leb 1
linux 1
acing 1
▁broken 1
tp 1
ío 1
abeth 1
istas 1
gew 1
ième 1
cas 1
▁preced 1
▁Dal 1
▁compared 1
equiv 1
illy 1
teen 1
▁Console 1
▁strict 1
itaire 1
▁ED 1
entials 1
▁perman 1
▁tous 1
▁geme 1
▁extrem 1
▁окру 1
kg 1
▁heavy 1
▁avril 1
▁anti 1
▁octobre 1
utf 1
helm 1
amples 1
▁(_ 1
aken 1
▁dear 1
▁opinion 1
▁fish 1
▁Alexander 1
iw 1
им 1
cadem 1
▁reflect 1
▁др 1
▁trib 1
common 1
▁clearly 1
▁saf 1
="@+ 1
▁Мос 1
сите 1
eqnarray 1
nung 1
▁relationship 1
▁Sem 1
▁killed 1
ted 1
uno 1
▁лі 1
▁wid 1
anning 1
▁panel 1
▁Leben 1
▁ruby 1
ansion 1
▁aren 1
tabular 1
alet 1
}$$ 1
▁Lake 1
▁suite 1
▁minor 1
Hozzáférés 1
▁xmlns 1
DIR 1
driver 1
ints 1
▁vic 1
AND 1
prim 1
сылки 1
▁Ox 1
TC 1
rivial 1
atie 1
▁eight 1
▁conflic 1
angel 1
▁Begr 1
▁explicitly 1
ются 1
▁Dev 1
render 1
▁reprodu 1
▁cré 1
Gu 1
MB 1
▁kön 1
▁remained 1
▁kl 1
хов 1
▁byl 1
Phi 1
▁detail 1
jav 1
▁mouse 1
Bas 1
ię 1
asser 1
hs 1
▁shift 1
▁últ 1
rand 1
▁btn 1
raz 1
▁pul 1
▁statements 1
filename 1
▁prompt 1
élé 1
ikz 1
▁Sus 1
▁debut 1
Stat 1
forms 1
▁Hein 1
stadt 1
ennis 1
пол 1
arante 1
цій 1
▁queue 1
▁reci 1
▁sta 1
ynchron 1
centering 1
Some 1
Graph 1
▁tested 1
▁Kunst 1
ом 1
▁Nothing 1
ieu 1
“. 1
Bundle 1
▁oficial 1
allow 1
▁React 1
▁Library 1
blue 1
▁verw 1
▁pare 1
▁Friedrich 1
▁aware 1
Exp 1
▁effects 1
▁горо 1
lopedia 1
▁Ven 1
rale 1
▁Final 1
▁propos 1
lacement 1
kten 1
▁novel 1
orter 1
▁Germany 1
▁django 1
▁transition 1
▁happened 1
▁beautiful 1
▁neither 1
▁libraries 1
▁hide 1
alg 1
▁aspect 1
▁forget 1
cademy 1
onte 1
refix 1
▁cloud 1
ned 1
cdots 1
register 1
nym 1
.): 1
▁Jew 1
▁très 1
ниче 1
▁Dor 1
▁proc 1
▁gan 1
▁є 1
▁Sav 1
ví 1
Settings 1
▁Vari 1
▁cours 1
Ro 1
▁conj 1
▁reasons 1
▁reader 1
лександ 1
icate 1
}), 1
▁tasks 1
▁Ray 1
▁ric 1
Ke 1
onie 1
rf 1
)[ 1
▁subsequ 1
▁Turn 1
▁VIAF 1
mathsf 1
HE 1
▁declare 1
▁protocol 1
▁PC 1
цион 1
ViewById 1
▁animation 1
▁confused 1
вич 1
▁enabled 1
owo 1
ást 1
öt 1
▁mand 1
▁Rail 1
fields 1
▁Kap 1
▁algebra 1
▁Су 1
férence 1
▁Current 1
сно 1
▁Lim 1
Params 1
▁Antonio 1
▁tv 1
late 1
ifer 1
Entry 1
▁Serv 1
▁musical 1
▁trace 1
▁scient 1
fic 1
▁forgot 1
video 1
▁older 1
Tree 1
▁uns 1
ники 1
▁Europa 1
▁Zwe 1
▁бе 1
▁vec 1
жу 1
▁▁▁▁▁▁▁▁▁▁▁ 1
Match 1
span 1
▁blank 1
▁später 1
▁Ty 1
▁dict 1
ña 1
▁confirm 1
▁vý 1
зан 1
Rel 1
film 1
▁Rot 1
▁Hy 1
ках 1
▁demand 1
▁minist 1
▁Madrid 1
▁usual 1
spiel 1
eros 1
▁tutorial 1
▁Ссылки 1
sys 1
циаль 1
▁spread 1
▁convers 1
▁roll 1
artifactId 1
▁Number 1
▁symmet 1
▁Mult 1
expected 1
▁axis 1
▁matching 1
▁food 1
groupId 1
Mapp 1
▁свя 1
▁vend 1
Found 1
otto 1
Cat 1
crit 1
istent 1
▁drei 1
▁ended 1
▁Tele 1
component 1
▁involved 1
▁Estados 1
▁danger 1
▁chain 1
▁Prom 1
hom 1
▁polít 1
cop 1
▁nap 1
rif 1
plements 1
▁vent 1
anna 1
anted 1
dated 1
anth 1
▁threads 1
зова 1
▁станов 1
▁eerst 1
buf 1
heid 1
▁Ru 1
▁Prim 1
▁migr 1
▁Unidos 1
▁arbitr 1
▁roman 1
ountry 1
ultur 1
▁König 1
▁annot 1
aching 1
▁Haupt 1
umin 1
▁hem 1
ckets 1
bau 1
ection 1
eft 1
▁packages 1
▁Kur 1
thur 1
▁pays 1
liament 1
▁Бу 1
▁cada 1
points 1
ocket 1
▁verb 1
лее 1
▁submit 1
▁san 1
ruby 1
▁east 1
kov 1
▁Verlag 1
▁spot 1
ppo 1
Each 1
jekt 1
▁Biographie 1
▁news 1
▁país 1
ufact 1
▁dia 1
кова 1
▁accompl 1
▁Ét 1
ilities 1
▁ihm 1
invoke 1
▁append 1
.), 1
▁lab 1
anging 1
istan 1
resol 1
▁Section 1
Parent 1
moz 1
Mat 1
styles 1
unden 1
“, 1
irtschaft 1
ким 1
▁Finally 1
phen 1
▁Pac 1
▁ArrayList 1
▁recover 1
▁education 1
models 1
ped 1
▁happy 1
чу 1
▁guerra 1
media 1
OF 1
▁ensure 1
Mark 1
database 1
oggle 1
▁publish 1
OW 1
▁Bau 1
?. 1
▁части 1
▁repository 1
▁Matt 1
high 1
oven 1
▁ger 1
▁unknown 1
Amer 1
▁Brown 1
ALL 1
▁resulting 1
▁bor 1
▁poet 1
ними 1
Email 1
Font 1
▁hist 1
▁today 1
▁Berg 1
▁buttons 1
тал 1
▁sni 1
▁челов 1
Cre 1
▁union 1
▁zich 1
ishop 1
▁quando 1
Po 1
CTION 1
▁Cost 1
судар 1
erved 1
Note 1
Equal 1
лия 1
бур 1
▁abstract 1
stop 1
▁advice 1
▁icon 1
▁travel 1
BS 1
vens 1
▁batch 1
lique 1
sheet 1
▁ihre 1
emon 1
berto 1
▁assigned 1
ью 1
Phone 1
▁award 1
▁functionality 1
alla 1
▁Dam 1
▁ciudad 1
▁cluster 1
Description 1
▁sheet 1
▁Australian 1
▁». 1
▁"< 1
▁wondering 1
aine 1
▁represented 1
kappa 1
nb 1
▁sy 1
▁Kö 1
="# 1
▁seven 1
Directory 1
▁sister 1
plates 1
▁luck 1
▁remaining 1
▁Vill 1
werk 1
anni 1
etti 1
func 1
▁ban 1
ims 1
miss 1
agraph 1
екси 1
▁Ref 1
nitt 1
▁Gab 1
▁andere 1
▁jedoch 1
results 1
!\ 1
▁listed 1
▁loro 1
▁knows 1
жно 1
Rad 1
▁socket 1
multi 1
▁рі 1
rails 1
▁tar 1
▁gentle 1
sett 1
services 1
bound 1
igkeit 1
aja 1
▁cmd 1
agger 1
▁ba 1
▁Belg 1
▁Kle 1
▁wordt 1
▁fost 1
▁dimension 1
Ang 1
uming 1
Obj 1
нен 1
▁Marie 1
exists 1
тро 1
▁боль 1
emente 1
▁Jon 1
SERT 1
▁highest 1
aki 1
▁tres 1
▁circum 1
▁Down 1
ommen 1
urer 1
▁causes 1
venue 1
issance 1
▁influence 1
▁fat 1
реди 1
}\\ 1
▁entr 1
▁Sign 1
▁кла 1
▁binding 1
essen 1
▁Фран 1
▁Local 1
▁явля 1
appro 1
▁dependencies 1
▁talking 1
▁zurück 1
connection 1
Active 1
bbe 1
irls 1
▁Inf 1
wd 1
▁ис 1
road 1
▁conven 1
ět 1
вез 1
▁entries 1
esc 1
▁bits 1
asso 1
WR 1
ships 1
▁dés 1
esp 1
Make 1
▁familiar 1
Art 1
▁army 1
ctr 1
éric 1
queue 1
▁\{ 1
uela 1
amiento 1
ших 1
▁""" 1
contr 1
лле 1
FS 1
▁market 1
ång 1
citep 1
Ill 1
rank 1
▁sender 1
▁beim 1
рак 1
▁compat 1
▁occurs 1
▁diese 1
ститу 1
awa 1
▁iOS 1
▁Chinese 1
▁TR 1
▁Ken 1
▁Une 1
▁creates 1
▁showed 1
▁év 1
ologia 1
▁protest 1
▁Pf 1
▁squad 1
++, 1
áv 1
▁essere 1
зя 1
kol 1
▁slightly 1
addr 1
ân 1
▁reduce 1
▁\(\ 1
▁Dep 1
▁generic 1
Loader 1
ți 1
▁пос 1
▁occasion 1
▁Lady 1
entity 1
▁avant 1
▁Pas 1
aggio 1
\{ 1
пад 1
atholic 1
Password 1
▁respond 1
▁Non 1
AG 1
neg 1
▁ус 1
blob 1
cke 1
▁Consider 1
▁Care 1
iki 1
▁Chicago 1
inden 1
▁Cop 1
]+ 1
öm 1
évrier 1
кло 1
alen 1
▁maj 1
racy 1
orte 1
ients 1
ells 1
activity 1
▁runtime 1
NULL 1
▁possibly 1
▁stri 1
izi 1
▁mir 1
▁Version 1
prime 1
▁twenty 1
▁Mah 1
▁sounds 1
шен 1
clusion 1
acz 1
▁determined 1
▁Rep 1
▁Landes 1
▁wall 1
igi 1
▁reset 1
шо 1
yan 1
Met 1
ei 1
▁appearance 1
▁fois 1
▁nell 1
esi 1
ёт 1
loor 1
▁Ul 1
▁resolution 1
▁fot 1
▁throughout 1
▁ri 1
Level 1
pool 1
▁identity 1
▁janu 1
▁imper 1
▁över 1
}` 1
▁infer 1
▁dates 1
▁Standard 1
force 1
ockey 1
tera 1
▁distingu 1
▁presence 1
lica 1
▁leaving 1
itung 1
éb 1
▁establish 1
▁maar 1
adi 1
▁News 1
azon 1
folg 1
▁Hence 1
▁Ye 1
▁fab 1
▁führ 1
itmap 1
▁Vers 1
rov 1
Sign 1
device 1
Sigma 1
▁wetenschapp 1
▁Ps 1
PATH 1
▁torn 1
vest 1
стов 1
account 1
▁largest 1
▁percent 1
▁Women 1
▁img 1
tool 1
▁roce 1
▁ay 1
inet 1
▁août 1
▁polynomial 1
▁integral 1
▁areas 1
}' 1
▁hyp 1
loyee 1
таль 1
▁proxy 1
▁Wy 1
▁Мекси 1
▁escape 1
olar 1
▁mistake 1
)}{ 1
▁Pot 1
▁processes 1
<unk9> 1
halten 1
zza 1
amo 1
кре 1
▁Wood 1
ør 1
▁сер 1
ocia 1
two 1
profile 1
▁Ast 1
embro 1
▁arms 1
inas 1
innen 1
▁msg 1
INT 1
▁batter 1
ignment 1
▁vy 1
Hrsg 1
▁Grund 1
roc 1
seg 1
▁decor 1
▁eventually 1
>, 1
▁pag 1
anten 1
▁strugg 1
}^\ 1
daten 1
▁rela 1
пов 1
▁коро 1
▁Bos 1
▁labor 1
▁Secret 1
ugen 1
▁jap 1
▁husband 1
▁Album 1
▁etwa 1
▁произ 1
richt 1
rach 1
bat 1
▁prepar 1
▁Stock 1
▁lack 1
хід 1
▁hogy 1
▁Chrome 1
▁Admin 1
▁comparison 1
▁increasing 1
нг 1
imi 1
Db 1
▁gef 1
ucht 1
ése 1
gence 1
▁Core 1
▁incorrect 1
▁assuming 1
ourse 1
ieron 1
▁Theorem 1
▁casa 1
jes 1
▁дере 1
▁`" 1
LD 1
äß 1
Deb 1
▁suiv 1
▁Bank 1
libs 1
▁Leon 1
▁quart 1
▁professional 1
▁tiene 1
▁accomp 1
стер 1
▁UK 1
NN 1
▁lí 1
ця 1
kel 1
▁• 1
▁dise 1
onto 1
▁má 1
ifs 1
bild 1
▁compute 1
▁éd 1
ję 1
▁Mé 1
▁languages 1
▁Times 1
cen 1
▁авто 1
ým 1
enez 1
▁upp 1
▁méd 1
▁cuando 1
од 1
Intent 1
eerd 1
▁Tal 1
offset 1
▁haben 1
reme 1
▁Stack 1
▁dri 1
▁seinem 1
▁février 1
▁combination 1
▁soll 1
▁movement 1
Spec 1
кры 1
retch 1
Offset 1
Root 1
Ар 1
wart 1
▁Follow 1
▁Social 1
ников 1
▁→ 1
Don 1
▁harm 1
agr 1
nego 1
resource 1
▁Luc 1
▁seinen 1
▁Department 1
▁Update 1
▁Texas 1
▁reve 1
▁Pos 1
▁shot 1
othe 1
▁repeated 1
▁recently 1
ában 1
aks 1
пан 1
▁cha 1
ohl 1
▁tend 1
▁дво 1
chts 1
çaise 1
pling 1
album 1
ej 1
▁`[ 1
maps 1
▁units 1
▁<!-- 1
▁ге 1
▁Information 1
ikon 1
▁tan 1
▁docker 1
▁Stad 1
▁audio 1
iko 1
▁coordinates 1
xs 1
▁replied 1
▁), 1
▁Government 1
▁Academy 1
UNT 1
▁три 1
Bl 1
▁anc 1
шу 1
▁також 1
▁infinite 1
RC 1
▁ga 1
▁adjust 1
▁merge 1
;` 1
▁poster 1
▁Japanese 1
"]; 1
▁exhib 1
▁ordered 1
ictures 1
рос 1
▁série 1
lets 1
▁ip 1
Selector 1
▁existence 1
Rece 1
liga 1
download 1
▁lemma 1
iev 1
udent 1
sko 1
▁Arab 1
itate 1
byte 1
от 1
ikt 1
ната 1
▁Af 1
(@ 1
▁mad 1
odb 1
▁elimin 1
▁spent 1
Enter 1
▁Mitg 1
When 1
▁départ 1
MI 1
▁fellow 1
▁thousand 1
▁Cu 1
ktor 1
Cache 1
▁também 1
▁extended 1
вест 1
aters 1
▁Lic 1
totype 1
▁Ga 1
▁blood 1
▁mapping 1
▁nomin 1
▁manifest 1
▁pens 1
▁rit 1
▁filename 1
▁filled 1
vä 1
▁raised 1
▁mobile 1
ké 1
▁Right 1
▁gehör 1
▁temperature 1
▁somehow 1
▁Spanish 1
▁kommun 1
▁chosen 1
▁horse 1
;\ 1
▁originally 1
Hash 1
▁citt 1
▁encore 1
▁Wolf 1
▁nú 1
▁Young 1
Vari 1
▁Schwe 1
▁capture 1
▁Jane 1
Interface 1
owych 1
▁Deutschland 1
▁Kol 1
▁boundary 1
▁GND 1
Now 1
kehr 1
(* 1
=- 1
▁Wel 1
▁Cat 1
amment 1
AGE 1
▁rights 1
Scroll 1
▁happening 1
▁Bla 1
▁science 1
aws 1
▁behaviour 1
▁implies 1
▁Queen 1
ovan 1
pay 1
ња 1
aret 1
ership 1
▁Lang 1
▁год 1
▁recorded 1
zem 1
▁Thread 1
▁todo 1
ogo 1
▁scenario 1
▁concent 1
рез 1
Storage 1
▁dirig 1
▁Series 1
▁gas 1
SET 1
èce 1
rate 1
HTTP 1
▁kap 1
Emp 1
UTF 1
ání 1
стави 1
windows 1
ération 1
aped 1
▁sistema 1
▁surv 1
▁Western 1
▁gé 1
▁Such 1
Writer 1
▁canvas 1
▁guarante 1
scroll 1
aved 1
Ital 1
▁Elect 1
](# 1
▁Herm 1
▁Command 1
▁Child 1
▁pd 1
utch 1
Sql 1
*. 1
▁Tag 1
▁Ta 1
▁mail 1
screen 1
scr 1
zial 1
▁Für 1
▁suggestions 1
chester 1
)| 1
person 1
zel 1
▁waiting 1
▁сле 1
FL 1
▁Albert 1
▁Hij 1
▁тер 1
ewrite 1
▁sentence 1
▁linux 1
еде 1
ência 1
▁Italian 1
чка 1
Files 1
▁noticed 1
bing 1
▁Research 1
▁alter 1
heel 1
\<^ 1
▁Process 1
▁battle 1
мов 1
▁Africa 1
▁Anne 1
▁geld 1
}% 1
▁docs 1
Types 1
▁retrieve 1
▁Official 1
▁trab 1
цы 1
▁Input 1
step 1
▁laugh 1
▁Ха 1
▁pela 1
Media 1
rough 1
гани 1
▁Should 1
▁Content 1
лем 1
osh 1
▁somewhat 1
▁Cer 1
Background 1
stru 1
▁inline 1
▁Neder 1
▁modules 1
▁Buch 1
ński 1
widet 1
▁zn 1
poses 1
▁gradu 1
▁aqu 1
PR 1
▁putting 1
▁поли 1
▁purch 1
▁smooth 1
рий 1
engine 1
▁lived 1
Account 1
Details 1
▁tells 1
▁Output 1
Here 1
▁Foundation 1
TextView 1
▁decision 1
▁dependency 1
ocation 1
oval 1
feld 1
▁пров 1
▁ends 1
▁ios 1
▁excel 1
agu 1
▁eleg 1
▁Element 1
Queue 1
▁fö 1
версите 1
▁experien 1
▁directed 1
▁camb 1
▁Дж 1
▁folg 1
▁conce 1
▁Fab 1
▁Vi 1
▁advantage 1
▁Bei 1
prod 1
▁XIX 1
▁Face 1
▁vir 1
▁Russian 1
▁span 1
ení 1
▁zone 1
▁attach 1
▁без 1
▁management 1
Ac 1
▁оп 1
once 1
halt 1
uso 1
Spe 1
▁raw 1
éro 1
idel 1
law 1
Sheet 1
▁mission 1
▁camera 1
▁honor 1
▁appointed 1
▁Roma 1
linear 1
Rows 1
ferences 1
▁IO 1
▁covered 1
raj 1
ствова 1
▁Sym 1
▁tid 1
isc 1
▁Rud 1
▁encuent 1
▁failure 1
üss 1
▁squ 1
▁paint 1
▁serious 1
▁cursor 1
tras 1
▁discussion 1
▁cried 1
erie 1
▁Develop 1
▁rewrite 1
▁général 1
wait 1
▁Harry 1
ír 1
▁gepublic 1
▁иг 1
іб 1
ят 1
▁Из 1
▁equations 1
▁plane 1
▁acqu 1
▁angle 1
▁trees 1
▁Кон 1
VD 1
pert 1
▁documents 1
cb 1
▁implements 1
станов 1
▁Walter 1
зыва 1
▁спе 1
▁chap 1
plex 1
▁magnet 1
▁gepubliceerd 1
▁highly 1
▁leurs 1
▁dress 1
▁restart 1
Render 1
Callback 1
iso 1
▁constitu 1
▁Ende 1
ZE 1
▁Angeles 1
▁derived 1
="{ 1
]\ 1
▁Change 1
▁Haus 1
▁stad 1
▁Request 1
omo 1
▁Active 1
uren 1
▁tourn 1
▁particularly 1
Servlet 1
abc 1
widetilde 1
andra 1
Helper 1
Rule 1
▁plusieurs 1
▁wave 1
neq 1
▁Те 1
fre 1
ské 1
▁alc 1
▁logs 1
GS 1
▁Mol 1
▁permission 1
▁soul 1
▁wants 1
▁guide 1
▁viene 1
▁Wilhelm 1
▁evidence 1
"}, 1
ropol 1
▁authentication 1
▁occurred 1
▁IF 1
noc 1
IA 1
▁Ban 1
▁кар 1
▁ble 1
▁segment 1
▁players 1
isi 1
▁stuck 1
▁Py 1
Any 1
hou 1
▁formatt 1
▁peace 1
▁Кар 1
etes 1
dfrac 1
(? 1
▁Site 1
▁Live 1
▁Us 1
▁clim 1
▁Ali 1
рей 1
▁Prince 1
▁oblig 1
ieb 1
▁Alt 1
▁pros 1
racle 1
▁Cette 1
kes 1
zös 1
ouvelle 1
//////// 1
aby 1
ére 1
rane 1
▁powers 1
▁Path 1
▁Word 1
▁transaction 1
▁causing 1
ellschaft 1
ât 1
▁CPU 1
▁depth 1
STR 1
▁Conf 1
▁rare 1
▁Ak 1
▁bon 1
▁Carlos 1
▁specifically 1
rics 1
KEY 1
▁stars 1
érica 1
▁Лу 1
▁configure 1
▁agent 1
▁explained 1
▁coefficient 1
дь 1
'} 1
▁vida 1
▁Syn 1
▁назва 1
▁Option 1
▁rob 1
▁клу 1
:[ 1
antly 1
dependency 1
▁Cur 1
▁frances 1
▁ideal 1
Sw 1
▁груп 1
▁Captain 1
▁todos 1
Jo 1
▁pelo 1
?]( 1
▁faith 1
овой 1
▁fresh 1
▁propri 1
Timeout 1
▁veh 1
contents 1
▁Document 1
collection 1
▁kar 1
ruck 1
Your 1
uma 1
▁mathemat 1
Enabled 1
публи 1
▁Engine 1
▁München 1
▁посе 1
▁fon 1
archive 1
▁frequency 1
}+\ 1
âte 1
▁kor 1
▁Кра 1
Sing 1
month 1
▁Haw 1
▁sys 1
erme 1
▁Would 1
▁impact 1
urrency 1
licht 1
▁apt 1
iere 1
▁motion 1
ССР 1
▁Init 1
▁ms 1
▁MS 1
shift 1
▁autres 1
▁bash 1
hidden 1
orio 1
▁celebr 1
▁Liber 1
eto 1
▁dove 1
▁paths 1
▁inj 1
Category 1
▁cry 1
▁marked 1
удо 1
ashion 1
ält 1
▁lan 1
▁teams 1
▁kv 1
iams 1
aban 1
▁TABLE 1
вар 1
Repos 1
▁Bell 1
▁pubblic 1
▁countries 1
▁spin 1
▁lég 1
▁Krie 1
▁Jones 1
white 1
Html 1
Press 1
▁Blue 1
Operation 1
▁Anth 1
▁pse 1
▁Font 1
▁theme 1
▁blocks 1
$) 1
▁glad 1
▁manage 1
orden 1
osten 1
cole 1
▁SP 1
▁schema 1
uras 1
▁whenever 1
ША 1
рито 1
▁discovered 1
▁prefix 1
global 1
roke 1
zes 1
chte 1
▁Before 1
мени 1
▁Dig 1
▁rapid 1
▁lleg 1
equals 1
▁Hoch 1
forall 1
вати 1
usz 1
▁attached 1
Expression 1
▁stock 1
üll 1
pet 1
essions 1
colo 1
▁gy 1
Book 1
▁Jacob 1
▁Product 1
▁inputs 1
мир 1
▁learned 1
ówn 1
▁police 1
▁лет 1
▁Item 1
▁eye 1
aient 1
▁Sammlung 1
▁Lor 1
▁repres 1
▁fest 1
Cond 1
▁nouve 1
▁extend 1
▁Frances 1
▁Find 1
▁deze 1
erna 1
▁había 1
prü 1
▁motor 1
bie 1
Hello 1
▁resid 1
▁finale 1
%) 1
{' 1
▁Hard 1
▁pairs 1
▁Ell 1
ivot 1
rees 1
▁Force 1
▁evening 1
▁después 1
rg 1
Why 1
▁conn 1
schema 1
ход 1
▁между 1
▁flash 1
skip 1
▁minute 1
▁ved 1
aylor 1
▁seus 1
▁Major 1
▁franc 1
▁rac 1
kw 1
cv 1
Native 1
▁Button 1
ници 1
settings 1
▁Access 1
▁quality 1
props 1
Float 1
▁Scot 1
▁AD 1
▁allem 1
&\ 1
ustration 1
pattern 1
mir 1
▁incorpor 1
skich 1
'> 1
Stand 1
▁technique 1
▁Ess 1
▁Oxford 1
▁ла 1
tikz 1
лий 1
Login 1
▁minister 1
▁curl 1
kan 1
▁maps 1
inda 1
rieb 1
▁END 1
ifies 1
console 1
bury 1
▁LE 1
▁independ 1
▁ta 1
▁Ś 1
onel 1
ész 1
▁Ist 1
utive 1
ёл 1
▁Region 1
▁(= 1
▁compact 1
çois 1
▁labels 1
autorité 1
▁stan 1
▁française 1
▁removing 1
yc 1
}| 1
▁Exec 1
($_ 1
mag 1
before 1
▁stopped 1
мии 1
▁refresh 1
unkt 1
icio 1
Xml 1
▁Tab 1
▁founded 1
▁fal 1
fx 1
▁Historia 1
▁Early 1
Dom 1
▁decide 1
▁understood 1
▁jur 1
▁Nr 1
▁capac 1
was 1
▁enemy 1
▁programs 1
▁mask 1
ске 1
▁groupe 1
cam 1
▁widget 1
REATE 1
▁seva 1
▁Barcel 1
▁perd 1
▁Му 1
rance 1
TYPE 1
▁{' 1
▁bill 1
▁"_ 1
'` 1
bahn 1
▁contained 1
Close 1
rug 1
egy 1
▁sight 1
▁Provin 1
ню 1
arz 1
щен 1
▁Joe 1
▁deleted 1
▁Auto 1
▁meter 1
CG 1
ъл 1
▁pent 1
▁bezeichnet 1
Sum 1
dbc 1
▁Platz 1
ectors 1
▁Little 1
QUE 1
ція 1
теля 1
night 1
▁ll 1
▁mostly 1
UID 1
▁bez 1
dob 1
кси 1
terne 1
▁corner 1
aty 1
▁improve 1
▁intr 1
▁`@ 1
arod 1
▁installation 1
▁Referências 1
igan 1
▁critic 1
adel 1
▁село 1
<unk10> 1
atori 1
▁Fri 1
▁références 1
▁Intent 1
▁tant 1
unci 1
▁levels 1
eres 1
▁emer 1
safe 1
tk 1
▁cham 1
▁greatly 1
▁weit 1
▁coach 1
▁toward 1
Home 1
▁Boolean 1
тел 1
▁mock 1
▁appreciate 1
▁Cross 1
▁Take 1
DP 1
▁sides 1
▁Normdaten 1
дей 1
stal 1
▁cout 1
bn 1
▁Vert 1
▁bird 1
▁dynamically 1
▁Dol 1
▁Burg 1
▁dog 1
ätt 1
▁nuc 1
EC 1
Bytes 1
▁ak 1
reland 1
▁guitar 1
▁regarding 1
▁Fuß 1
▁дол 1
auss 1
▁jej 1
aco 1
▁updates 1
рук 1
('/ 1
▁cold 1
▁Given 1
hin 1
▁feeling 1
igli 1
fah 1
стре 1
bool 1
initial 1
▁становника 1
▁Anna 1
▁hors 1
▁doll 1
▁consum 1
uber 1
standing 1
activ 1
зі 1
checked 1
▁permissions 1
▁Monte 1
WriteLine 1
plus 1
▁Equ 1
▁их 1
чки 1
unque 1
▁LO 1
ea 1
sample 1
iesz 1
oral 1
▁Ин 1
oston 1
▁Simon 1
fast 1
mk 1
assen 1
▁architecture 1
enses 1
▁Å 1
▁topic 1
▁disable 1
▁Cru 1
▁Control 1
▁creation 1
▁hyper 1
itud 1
жения 1
aram 1
▁где 1
ienst 1
edule 1
▁Bot 1
▁Ос 1
▁Their 1
anne 1
Microsoft 1
▁PM 1
ydro 1
entlich 1
▁Eine 1
CHAR 1
:' 1
Well 1
leton 1
▁supports 1
']) 1
manual 1
▁vice 1
asa 1
clos 1
vised 1
▁pok 1
track 1
ност 1
........ 1
▁'\ 1
². 1
▁orders 1
etta 1
▁conversion 1
▁trade 1
cli 1
▁Исто 1
▁akt 1
▁subset 1
▁aug 1
▁leaves 1
Math 1
anned 1
kal 1
▁Вели 1
▁nog 1
▁eth 1
▁hair 1
around 1
▁javax 1
вой 1
▁Centre 1
öß 1
uti 1
▁navigation 1
▁PS 1
▁wa 1
▁России 1
usa 1
zeta 1
▁PDF 1
▁mismo 1
properties 1
meister 1
льта 1
forward 1
▁Ost 1
kins 1
▁sido 1
зов 1
tags 1
▁actor 1
▁fly 1
CR 1
agini 1
▁lett 1
eni 1
tech 1
▁Enc 1
oracle 1
amilton 1
zej 1
fen 1
umerate 1
▁questo 1
dart 1
▁Kore 1
apis 1
eper 1
Screen 1
wall 1
▁island 1
she 1
▁ligger 1
вся 1
fang 1
▁tard 1
▁plaats 1
▁пло 1
▁Office 1
▁SET 1
▁circuit 1
jed 1
Save 1
льно 1
Socket 1
▁Index 1
ACK 1
iders 1
erer 1
▁США 1
▁lady 1
▁scheme 1
ielle 1
▁exerc 1
)}\ 1
DateTime 1
athan 1
▁Professor 1
▁moins 1
▁Excel 1
▁Hay 1
▁Musik 1
▁ї 1
ęd 1
▁". 1
▁був 1
▁instrument 1
пар 1
▁бере 1
▁politique 1
▁tradition 1
▁VM 1
▁Arts 1
▁Ci 1
Use 1
▁aggreg 1
▁weeks 1
▁opport 1
iting 1
▁vertical 1
▁Naz 1
...) 1
izo 1
▁cycle 1
▁tempo 1
тре 1
▁handling 1
istence 1
▁paste 1
▁enjo 1
ROUP 1
▁outer 1
▁supply 1
eman 1
▁accident 1
▁\] 1
▁тех 1
Pool 1
oting 1
onymous 1
▁Giov 1
▁ud 1
▁./ 1
ERROR 1
construct 1
textwidth 1
quipe 1
cases 1
▁ад 1
▁Row 1
Holder 1
wan 1
arna 1
Mem 1
▁Canadian 1
▁Commission 1
sun 1
▁apps 1
▁Blo 1
▁ihrer 1
▁famille 1
▁mě 1
▁py 1
ис 1
▁того 1
▁Again 1
▁ignore 1
▁television 1
Pat 1
hide 1
▁Rev 1
▁bear 1
phy 1
▁noise 1
▁wra 1
ationale 1
▁collabor 1
border 1
▁elected 1
▁surpr 1
▁avoir 1
▁assembly 1
▁обще 1
▁arbitrary 1
▁brief 1
▁--- 1
▁Maur 1
gression 1
icia 1
▁liegt 1
▁Figure 1
▁onto 1
Repository 1
▁déf 1
▁forth 1
▁clicked 1
seite 1
▁notes 1
native 1
▁EDIT 1
ые 1
MT 1
amental 1
▁rose 1
▁puede 1
Delegate 1
uba 1
neo 1
xis 1
▁Arthur 1
URE 1
aming 1
Device 1
▁diam 1
ständ 1
▁pron 1
ois 1
coming 1
Parameters 1
uvud 1
▁ability 1
▁mét 1
▁Unfortunately 1
fd 1
Dictionary 1
socket 1
▁conoc 1
contains 1
essed 1
▁geldig 1
ница 1
▁pointed 1
esti 1
nom 1
ография 1
▁represents 1
▁manip 1
world 1
▁resolved 1
tegr 1
▁dort 1
astern 1
▁campaign 1
▁primo 1
▁;; 1
▁snippet 1
▁Nik 1
Total 1
issement 1
ACE 1
▁verify 1
iffe 1
lagen 1
ieur 1
▁converted 1
▁Milit 1
▁Alg 1
▁Ron 1
▁konn 1
apple 1
▁dispos 1
stellung 1
▁retain 1
▁mentre 1
▁neut 1
▁Night 1
ché 1
atti 1
▁obra 1
▁superior 1
▁Congress 1
ём 1
▁codes 1
▁Ama 1
▁Earth 1
▁opposite 1
▁pool 1
▁Dun 1
жение 1
▁"${ 1
inv 1
▁уни 1
▁Andrew 1
телей 1
▁był 1
Univers 1
▁Angular 1
anim 1
дова 1
BUG 1
utely 1
▁drawing 1
▁gain 1
▁fourth 1
▁Problem 1
▁suddenly 1
▁Ä 1
onna 1
▁Kont 1
▁Bildern 1
▁konnte 1
že 1
Trace 1
▁secure 1
▁który 1
▁eq 1
▁formal 1
amerikan 1
▁Anal 1
▁Rewrite 1
▁Double 1
created 1
NU 1
MDb 1
apes 1
Unis 1
▁especial 1
})\ 1
edom 1
▁categor 1
Return 1
▁Hamb 1
▁Rio 1
▁Mir 1
▁Geme 1
abilities 1
trz 1
uset 1
ierra 1
network 1
▁doctor 1
eurs 1
▁listen 1
дж 1
▁Hö 1
▁consists 1
asm 1
Chr 1
aland 1
▁исполь 1
▁lugar 1
▁definitely 1
move 1
ública 1
▁län 1
ismus 1
▁држа 1
▁dt 1
▁Perhaps 1
▁Brasil 1
John 1
▁promise 1
łu 1
reens 1
▁psych 1
▁Who 1
ряд 1
▁INTO 1
▁People 1
▁Williams 1
▁Marg 1
▁дан 1
record 1
▁Euro 1
▁Virginia 1
▁Rest 1
▁Corn 1
}}, 1
▁Grid 1
▁inject 1
нан 1
▁crow 1
▁Phys 1
▁DO 1
▁"- 1
▁increased 1
acher 1
peat 1
Lin 1
▁Dub 1
rices 1
agnost 1
dl 1
▁curve 1
üg 1
rice 1
language 1
ClickListener 1
▁municipal 1
▁Ori 1
▁Bild 1
▁Cab 1
▁Var 1
▁noted 1
▁Î 1
▁subs 1
iation 1
WOR 1
ingly 1
▁Rus 1
iens 1
INFO 1
ква 1
ativo 1
gende 1
▁Franz 1
▁isol 1
edes 1
nier 1
▁NO 1
▁Has 1
beans 1
▁pandas 1
("% 1
віт 1
утбо 1
▁gather 1
▁legal 1
includ 1
▁circumst 1
criptor 1
rible 1
▁Süd 1
▁apro 1
Api 1
▁най 1
▁African 1
owski 1
▁Johnson 1
iek 1
▁vote 1
▁Kan 1
▁bibli 1
▁haar 1
▁vr 1
]), 1
subseteq 1
Parser 1
iani 1
isé 1
idea 1
Only 1
▁ál 1
▁Catal 1
▁Case 1
seh 1
▁encounter 1
▁reform 1
мини 1
▁Stre 1
exception 1
▁Tar 1
тар 1
trl 1
▁Александ 1
лект 1
equal 1
Op 1
▁lif 1
▁його 1
▁voltage 1
shire 1
▁Groß 1
вня 1
nings 1
нци 1
▁lag 1
▁anderen 1
▁vac 1
▁macro 1
=[ 1
Then 1
▁controls 1
seq 1
ologies 1
▁selector 1
▁України 1
хівовано 1
ый 1
allenge 1
▁IMDb 1
ummy 1
yen 1
▁beste 1
▁Box 1
▁chair 1
▁Sab 1
erde 1
▁nast 1
ivamente 1
▁объ 1
▁requirements 1
▁meeting 1
▁finan 1
▁Adam 1
▁televis 1
▁bright 1
▁Git 1
EG 1
▁Gil 1
rès 1
▁Cond 1
▁ft 1
▁було 1
-+ 1
END 1
erne 1
▁Comput 1
▁ils 1
▁gall 1
▁csv 1
ług 1
▁summer 1
game 1
▁posts 1
Архівовано 1
▁zij 1
▁determin 1
▁abandon 1
counter 1
▁requirement 1
▁Tit 1
irtual 1
▁Videos 1
▁quiet 1
▁Term 1
▁timeout 1
Print 1
▁invent 1
lais 1
▁monitor 1
halb 1
▁Wild 1
▁leader 1
▁сель 1
▁utiliz 1
▁parents 1
▁forced 1
▁proved 1
▁effective 1
▁llam 1
▁Спо 1
orb 1
ggi 1
▁assumption 1
▁subm 1
▁вій 1
ilia 1
▁reverse 1
'" 1
▁quotes 1
▁sites 1
igung 1
▁Arg 1
Double 1
▁screens 1
▁clause 1
▁bundle 1
▁philosoph 1
▁Num 1
▁gleich 1
uly 1
direct 1
asketball 1
owany 1
\}$ 1
▁radius 1
▁Search 1
Properties 1
▁elev 1
▁prod 1
▁"% 1
isión 1
Debug 1
Second 1
(! 1
▁Catholic 1
рован 1
lez 1
Pa 1
pson 1
▁erste 1
▁Fu 1
▁lit 1
▁Saison 1
▁Hash 1
▁exem 1
▁представ 1
)* 1
▁eu 1
▁│ 1
▁gab 1
etailed 1
Copy 1
▁два 1
even 1
Kind 1
▁Jackson 1
ал 1
▁consec 1
USER 1
▁Tok 1
(. 1
▁$| 1
▁Tamb 1
▁Lemma 1
hang 1
▁contribution 1
rollers 1
▁studies 1
▁poi 1
gems 1
▁UP 1
▁Wol 1
>" 1
▁floor 1
▁initialize 1
▁Lew 1
zek 1
arte 1
▁positions 1
▁portion 1
cover 1
wp 1
ового 1
▁piano 1
▁metal 1
▁samples 1
▁Сан 1
variable 1
▁стать 1
▁integers 1
Where 1
family 1
▁nun 1
▁increment 1
ixed 1
▁heeft 1
fte 1
▁vil 1
▁otros 1
Multimedia 1
▁Henri 1
aded 1
ген 1
▁capit 1
▁других 1
isp 1
ITY 1
▁constraints 1
▁Kirche 1
found 1
ший 1
▁pic 1
▁tou 1
cred 1
роб 1
▁Mess 1
Job 1
▁Mais 1
▁styles 1
fall 1
▁Uk 1
▁street 1
occer 1
esen 1
▁colors 1
cean 1
юще 1
conne 1
▁ratio 1
anton 1
▁Fel 1
▁customer 1
▁Prix 1
rás 1
pred 1
▁electron 1
sym 1
▁вели 1
▁overflow 1
▁$[ 1
▁POST 1
▁Cin 1
scheid 1
("/ 1
▁searching 1
▁purposes 1
▁arrived 1
▁punt 1
▁lad 1
Python 1
▁leads 1
▁sand 1
пада 1
▁communes 1
▁CHAP 1
▁caso 1
rz 1
▁dw 1
aca 1
▁Columb 1
children 1
êt 1
schemas 1
▁instructions 1
▁-\ 1
▁Israel 1
ności 1
▁образ 1
▁совет 1
▁immagini 1
▁Fred 1
▁Global 1
▁thick 1
▁fueron 1
▁thrown 1
▁clock 1
enable 1
''' 1
▁Sund 1
▁contempor 1
answer 1
▁manufact 1
▁io 1
qquad 1
OUT 1
▁Lab 1
▁Zw 1
legal 1
▁Vel 1
▁raise 1
▁deliver 1
▁Voir 1
▁assumed 1
Let 1
ierten 1
▁Kong 1
▁Exp 1
▁Jug 1
▁declaration 1
▁Fish 1
mé 1
▁speech 1
▁tent 1
▁Route 1
__( 1
▁réalis 1
▁Design 1
setText 1
▁Station 1
archy 1
▁като 1
▁dent 1
▁Kl 1
iß 1
▁risk 1
▁Broad 1
▁vectors 1
▁Spec 1
▁routes 1
ymn 1
▁Greg 1
▁получи 1
gie 1
ORM 1
веде 1
walt 1
▁efter 1
Ptr 1
▁subt 1
▁birth 1
▁drawn 1
mess 1
мерикан 1
VE 1
▁Put 1
▁asc 1
▁feder 1
сли 1
▁Prin 1
▁stick 1
reset 1
yk 1
studio 1
▁Still 1
Const 1
ació 1
▁Portugal 1
▁scripts 1
undial 1
▁lives 1
▁szer 1
▁estado 1
folder 1
▁communication 1
Route 1
▁swift 1
тен 1
▁kill 1
▁PR 1
joint 1
▁objective 1
▁complicated 1
▁Über 1
esh 1
picture 1
raine 1
comput 1
▁proport 1
ogs 1
ült 1
▁quantum 1
кри 1
▁sop 1
▁loops 1
▁Reference 1
▁nei 1
ICE 1
▁verm 1
▁adj 1
▁però 1
▁trou 1
isions 1
▁Apple 1
servable 1
▁Boston 1
oret 1
oks 1
▁kg 1
defined 1
platform 1
cler 1
ographic 1
ritt 1
▁dic 1
▁Mond 1
▁Ireland 1
▁Una 1
▁commercial 1
▁Pu 1
Di 1
▁её 1
▁precis 1
народ 1
▁quatre 1
ustral 1
▁dag 1
igue 1
▁burn 1
▁officer 1
▁Ав 1
▁highlight 1
▁Suppose 1
odi 1
servlet 1
▁Encyc 1
▁Range 1
тий 1
Please 1
▁років 1
quant 1
▁flat 1
▁Référence 1
следова 1
role 1
▁diesen 1
}}( 1
▁Indust 1
▁númer 1
▁"; 1
lus 1
ôle 1
▁zm 1
deg 1
▁rough 1
Inv 1
▁hur 1
▁Ress 1
chs 1
▁turns 1
nero 1
functions 1
али 1
▁habitants 1
ат 1
issues 1
▁huge 1
Utils 1
▁Sat 1
▁государ 1
▁coast 1
shape 1
LC 1
▁logging 1
endor 1
▁lies 1
▁difer 1
▁critical 1
XT 1
мина 1
ansk 1
Results 1
kc 1
iverse 1
EXT 1
ALSE 1
▁vál 1
Pi 1
compile 1
hello 1
▁чемпи 1
▁Italia 1
коло 1
▁edition 1
grund 1
▁dataframe 1
▁Following 1
reib 1
▁Jeff 1
▁città 1
ITable 1
▁$(\ 1
▁reduced 1
obil 1
▁anywhere 1
'( 1
▁phr 1
▁Kh 1
▁Frame 1
▁manual 1
▁cra 1
▁VS 1
%= 1
InstanceState 1
▁бра 1
▁Drag 1
▁Herr 1
▁гу 1
▁mús 1
Tool 1
▁Private 1
▁synchron 1
iration 1
▁обо 1
▁typically 1
▁implicit 1
orient 1
▁timer 1
▁können 1
iest 1
raid 1
▁expressions 1
▁aim 1
▁stre 1
▁wrap 1
▁Bart 1
▁bron 1
▁keyboard 1
pow 1
▁grupo 1
▁резу 1
▁professor 1
▁Head 1
ною 1
minus 1
▁Michel 1
NOT 1
mor 1
]} 1
widehat 1
aris 1
тература 1
defn 1
istrz 1
▁tanto 1
▁Pow 1
▁indicate 1
▁Winter 1
reshold 1
рів 1
▁`( 1
▁owner 1
▁disp 1
▁кри 1
мет 1
мент 1
report 1
require 1
▁voy 1
▁AP 1
▁España 1
▁São 1
jär 1
Non 1
Library 1
ichten 1
▁structures 1
▁muy 1
ário 1
▁certificate 1
чного 1
▁province 1
pages 1
dal 1
▁Freder 1
ье 1
Execute 1
▁ancient 1
▁films 1
▁Alfred 1
Auto 1
▁atom 1
▁ell 1
▁Harr 1
йн 1
▁"# 1
▁nacional 1
▁neighbor 1
ступа 1
▁wit 1
Pop 1
▁Greek 1
▁repeat 1
bad 1
▁SC 1
▁DateTime 1
шти 1
▁WH 1
▁прави 1
▁Ти 1
▁saison 1
▁Hart 1
directory 1
uan 1
norm 1
▁Philipp 1
▁suspect 1
▁anno 1
bc 1
сла 1
$( 1
▁befind 1
ocs 1
latest 1
;"> 1
▁afterwards 1
PUT 1
▁ja 1
▁Hil 1
yz 1
▁Bour 1
▁laid 1
▁Дже 1
pie 1
watch 1
▁Eq 1
contact 1
iber 1
checkbox 1
▁españ 1
anse 1
▁шко 1
eff 1
xxx 1
▁GET 1
▁lov 1
itute 1
zech 1
tere 1
▁purs 1
kens 1
iante 1
▁Free 1
▁органи 1
kreis 1
▁{: 1
shared 1
▁Graph 1
▁connections 1
▁DOM 1
▁Cart 1
sson 1
▁Hamilton 1
тели 1
▁restaur 1
Resol 1
Driver 1
▁enf 1
EDIT 1
▁prev 1
▁ik 1
▁să 1
jö 1
▁СССР 1
▁colour 1
chten 1
▁estad 1
inois 1
▁confir 1
▁vé 1
▁Ces 1
▁Never 1
omer 1
жда 1
слу 1
чения 1
dll 1
▁youth 1
emen 1
▁studied 1
▁Kil 1
cion 1
▁navig 1
required 1
orithms 1
ilor 1
▁Deutschen 1
▁persons 1
▁Barcelona 1
▁formation 1
abei 1
▁против 1
Engine 1
ONE 1
ográ 1
Cap 1
rir 1
▁gate 1
oration 1
maven 1
▁combined 1
▁attr 1
▁hook 1
▁который 1
▁servers 1
ucture 1
ження 1
tv 1
▁req 1
jal 1
▁locally 1
}}{\ 1
Br 1
▁Hier 1
мор 1
▁apart 1
"], 1
▁%>% 1
▁zusammen 1
▁identify 1
▁Altern 1
▁бро 1
▁ци 1
gh 1
▁Ten 1
RS 1
форма 1
▁nelle 1
▁Hin 1
ounding 1
▁représ 1
aph 1
▁[\ 1
▁Sports 1
рал 1
▁thre 1
▁prin 1
▁Eliz 1
▁Four 1
▁society 1
Transaction 1
▁veg 1
▁schools 1
▁overall 1
▁tail 1
über 1
▁Sov 1
▁Сер 1
▁rapp 1
▁traffic 1
question 1
▁environ 1
ateien 1
icus 1
▁narrow 1
▁pray 1
▁Bou 1
▁Client 1
abl 1
▁Audiod 1
▁npm 1
▁Column 1
▁Games 1
aver 1
onymes 1
▁После 1
ną 1
▁Nu 1
▁Dick 1
▁tensor 1
▁@" 1
vé 1
Icon 1
▁пода 1
▁Gon 1
/). 1
istra 1
▁Audiodateien 1
Delete 1
}}} 1
▁jump 1
▁Об 1
▁principle 1
▁États 1
oked 1
▁Вла 1
Interval 1
▁sau 1
encode 1
▁pon 1
catch 1
▁tiem 1
▁Gust 1
MC 1
limits 1
▁keeping 1
▁songs 1
▁авгу 1
▁район 1
▁notification 1
▁offered 1
Cor 1
▁shut 1
errors 1
▁EN 1
▁latach 1
▁selbst 1
▁checkbox 1
▁cool 1
▁factory 1
▁paid 1
dimensional 1
niej 1
pton 1
▁pin 1
aked 1
▁reli 1
▁Taylor 1
▁Something 1
imum 1
▁Vin 1
▁iteration 1
Find 1
кови 1
▁boys 1
▁Simple 1
▁Crist 1
▁Was 1
ând 1
▁Va 1
▁тра 1
▁destination 1
limp 1
▁Kat 1
worth 1
▁Kor 1
ição 1
=` 1
▁fairly 1
falls 1
▁reject 1
▁dream 1
bell 1
▁toute 1
▁$\{ 1
▁stone 1
▁protect 1
▁excell 1
▁Mexico 1
▁dash 1
▁fault 1
pmatrix 1
aller 1
▁guerre 1
origin 1
hibernate 1
ília 1
▁Register 1
unto 1
▁Bat 1
▁bow 1
ських 1
età 1
▁Luis 1
▁fou 1
▁Cambridge 1
▁ott 1
sup 1
reas 1
▁pointers 1
▁Board 1
▁ри 1
▁driv 1
нин 1
▁Circ 1
▁thou 1
Div 1
spark 1
lament 1
▁VAL 1
Send 1
▁Irish 1
oy 1
▁Tu 1
▁trivial 1
Forms 1
▁así 1
▁Imper 1
▁signature 1
unos 1
▁Neg 1
▁cancel 1
▁Heinrich 1
eed 1
Illustration 1
▁sulla 1
▁quarter 1
asz 1
▁blog 1
fica 1
won 1
quet 1
])) 1
▁generation 1
▁caught 1
▁lands 1
▁Kingdom 1
schaften 1
rons 1
annels 1
▁Special 1
tutorial 1
tip 1
▁"", 1
▁Azure 1
▁bounded 1
Sm 1
tar 1
вен 1
▁зем 1
▁notation 1
▁apache 1
▁gaz 1
ierno 1
angen 1
pective 1
▁electric 1
▁semi 1
MAX 1
ederb 1
objects 1
▁differences 1
isted 1
href 1
icip 1
▁numpy 1
▁футбо 1
loader 1
▁dich 1
љу 1
▁Dé 1
Hz 1
▁Param 1
documentation 1
ircraft 1
EM 1
▁institution 1
compat 1
▁аль 1
слав 1
▁Net 1
циональ 1
▁broadcast 1
datetime 1
async 1
vre 1
mean 1
▁Chem 1
▁estimate 1
icana 1
▁grep 1
tek 1
äm 1
orig 1
▁Victor 1
utenant 1
anga 1
pin 1
▁vertex 1
▁CHAPTER 1
city 1
ugby 1
green 1
▁Ker 1
▁différ 1
▁necessarily 1
DC 1
Linear 1
alem 1
▁Later 1
▁meta 1
jem 1
ragen 1
May 1
▁Mitglied 1
▁sorted 1
ussen 1
▁spoke 1
▁disabled 1
▁accomplish 1
▁Russia 1
there 1
ees 1
▁hall 1
▁metric 1
attribute 1
того 1
about 1
▁Lam 1
channel 1
▁episode 1
▁$('. 1
▁ought 1
▁Este 1
Objects 1
▁validate 1
▁rim 1
▁numerous 1
▁Javascript 1
▁GL 1
▁Italy 1
ederbörd 1
onato 1
books 1
stone 1
ху 1
▁jel 1
iri 1
▁ASP 1
GA 1
▁stata 1
▁baz 1
Day 1
thm 1
dh 1
▁Files 1
AndroidRuntime 1
▁checks 1
kr 1
▁venne 1
SL 1
avia 1
kazy 1
▁Three 1
Admin 1
▁college 1
Global 1
tion 1
▁curious 1
short 1
▁bass 1
дела 1
▁дея 1
Schema 1
'\ 1
diff 1
▁CA 1
▁Corpor 1
▁operators 1
områ 1
▁edges 1
);` 1
inds 1
▁ging 1
&& 1
}-\ 1
rano 1
▁são 1
▁adds 1
elor 1
▁unsigned 1
▁пр 1
▁Config 1
▁Esc 1
▁chose 1
▁pieces 1
▁regions 1
Est 1
▁Battle 1
▁foc 1
▁Light 1
padding 1
aben 1
▁europ 1
illon 1
▁есть 1
▁bord 1
▁отно 1
▁Hong 1
▁vul 1
plugins 1
▁'< 1
▁kur 1
region 1
▁Repub 1
icher 1
}_\ 1
▁medal 1
▁Moreover 1
BI 1
Av 1
uter 1
▁scan 1
▁Municip 1
▁contrast 1
▁Ig 1
▁город 1
related 1
aling 1
▁мат 1
ünst 1
▁Chris 1
wy 1
▁Actually 1
▁Universidad 1
EventListener 1
▁temporada 1
▁assignment 1
▁Mike 1
▁während 1
▁świ 1
▁сред 1
каде 1
▁calculated 1
▁eller 1
▁Ash 1
riel 1
▁hardware 1
▁intens 1
('. 1
illi 1
agon 1
▁Gy 1
▁heute 1
▁sle 1
▁literature 1
sem 1
manager 1
▁Grande 1
▁mixed 1
▁Вер 1
ící 1
▁soit 1
▁welcome 1
чение 1
▁Universität 1
▁builder 1
simple 1
icode 1
ře 1
indent 1
opo 1
▁advanced 1
temper 1
edge 1
▁datetime 1
▁donc 1
лання 1
▁verd 1
дно 1
itos 1
▁heat 1
visible 1
mel 1
▁Giovanni 1
▁variety 1
▁router 1
Vector 1
▁Walk 1
▁obviously 1
hein 1
Fin 1
ITableView 1
Year 1
▁Econom 1
▁velocity 1
▁Civil 1
▁ј 1
alert 1
Identifier 1
ència 1
▁normally 1
▁Egypt 1
▁ctx 1
▁Verein 1
▁Hu 1
ulture 1
ните 1
lé 1
▁Wien 1
▁Prz 1
Byte 1
▁nah 1
isms 1
▁Publish 1
▁Herz 1
icul 1
pisode 1
чі 1
▁diesem 1
kö 1
Visible 1
▁rig 1
`). 1
Parse 1
▁Jacques 1
NI 1
▁glass 1
---+ 1
▁initially 1
▁kr 1
CCN 1
plays 1
▁sigu 1
Folder 1
storage 1
▁\| 1
ivos 1
скую 1
▁Moh 1
▁Committee 1
▁Kim 1
eu 1
тем 1
▁originale 1
irs 1
▁Reb 1
itut 1
nl 1
▁Pier 1
▁]; 1
▁Fal 1
▁""; 1
mvc 1
▁female 1
▁bridge 1
▁tít 1
ktr 1
>) 1
▁seat 1
▁vess 1
▁USB 1
▁Articles 1
▁Description 1
▁oc 1
▁houses 1
▁Пет 1
lon 1
Notification 1
▁pressure 1
▁куль 1
igned 1
▁religious 1
fan 1
iglia 1
▁classification 1
ogether 1
▁SDK 1
▁Human 1
▁commission 1
▁Ор 1
▁antes 1
DT 1
ète 1
prés 1
/" 1
▁(« 1
▁hö 1
▁час 1
▁jak 1
ienen 1
ugg 1
WA 1
▁placeholder 1
Will 1
,, 1
▁Kam 1
▁wen 1
▁Schul 1
ție 1
▁aud 1
▁sue 1
▁referred 1
ват 1
▁Para 1
▁bla 1
UES 1
▁statist 1
▁ту 1
▁Warsza 1
gue 1
▁Ide 1
mathscr 1
▁lieu 1
▁bod 1
▁rus 1
▁boat 1
xspace 1
▁modal 1
лек 1
topic 1
many 1
ský 1
▁organization 1
▁гене 1
▁Wilson 1
▁comfort 1
ibil 1
:- 1
▁animal 1
Report 1
ками 1
jon 1
▁ker 1
▁кни 1
mozilla 1
Price 1
antin 1
emento 1
may 1
▁lung 1
▁blow 1
edeut 1
▁typed 1
▁december 1
▁.... 1
liance 1
▁viel 1
▁Фи 1
presa 1
▁осіб 1
▁Nam 1
▁Gren 1
силання 1
VID 1
stre 1
weis 1
▁protection 1
taient 1
▁officers 1
тно 1
▁Brig 1
▁intellig 1
ях 1
ITH 1
▁separated 1
▁LCCN 1
ním 1
clock 1
▁apare 1
яви 1
▁Elizabeth 1
▁Water 1
gebiet 1
▁convent 1
furt 1
▁beiden 1
bash 1
▁через 1
▁ub 1
▁Statist 1
▁limits 1
Vol 1
ctx 1
▁нов 1
guide 1
mic 1
iesa 1
▁huvud 1
RT 1
Fig 1
▁lect 1
conn 1
imit 1
гар 1
▁bajo 1
scribe 1
regex 1
▁Cass 1
▁propag 1
'$ 1
▁profes 1
unique 1
▁Sql 1
union 1
rios 1
pip 1
--+ 1
kadem 1
columns 1
▁vary 1
▁bereits 1
▁doi 1
▁Common 1
▁Robin 1
▁× 1
▁sei 1
▁syst 1
▁vä 1
▁Default 1
▁tym 1
pel 1
▁believed 1
▁provider 1
▁minimal 1
тали 1
aines 1
Kit 1
izio 1
issen 1
pressed 1
▁stag 1
▁uint 1
kor 1
▁распо 1
▁inherit 1
▁compiled 1
▁febru 1
▁tmp 1
works 1
чна 1
drawable 1
▁Nav 1
▁thoughts 1
route 1
▁concert 1
▁optional 1
▁bras 1
▁providing 1
сом 1
idx 1
emplo 1
▁коли 1
▁Bere 1
▁Els 1
ремен 1
▁дека 1
cout 1
layer 1
▁glob 1
foreach 1
▁Education 1
PO 1
▁improv 1
▁clients 1
groups 1
▁kont 1
Del 1
rett 1
▁sup 1
▁mog 1
tan 1
▁compl 1
irty 1
▁nouveau 1
osz 1
▁Navy 1
bere 1
mask 1
ové 1
zil 1
PER 1
▁población 1
▁detailed 1
лет 1
▁families 1
abet 1
евич 1
änder 1
▁år 1
▁pendant 1
▁bil 1
▁hint 1
oden 1
▁expansion 1
▁pont 1
asant 1
▁Kind 1
iji 1
▁Auth 1
laimed 1
reflect 1
]= 1
bytes 1
hover 1
▁цер 1
gradle 1
Arch 1
apest 1
ása 1
Card 1
▁temporary 1
▁département 1
classes 1
жива 1
▁худо 1
▁mole 1
RY 1
LP 1
▁pec 1
roduction 1
▁Guard 1
▁Parliament 1
▁instanti 1
▁notamment 1
▁Doug 1
▁Marsh 1
.~ 1
▁\" 1
▁thé 1
▁libre 1
does 1
▁début 1
▁Unit 1
▁сту 1
▁league 1
▁quale 1
▁составля 1
Security 1
▁apparently 1
▁troops 1
icano 1
▁MB 1
enze 1
loading 1
▁distributed 1
writer 1
resources 1
hö 1
utils 1
▁prepared 1
cier 1
opol 1
▁länkar 1
hes 1
нва 1
▁opens 1
agog 1
interface 1
▁Fund 1
▁pentru 1
ních 1
▁configured 1
▁Website 1
▁listener 1
ivel 1
nę 1
mina 1
▁invest 1
▁міс 1
▁dav 1
▁patch 1
pieler 1
▁Externa 1
tf 1
▁ered 1
▁Assembly 1
▁sout 1
▁verk 1
mers 1
toggle 1
▁updating 1
▁Kent 1
eca 1
FAULT 1
▁titre 1
▁Kenn 1
▁Миха 1
стор 1
▁pode 1
▁Seb 1
цев 1
EY 1
▁silver 1
▁capacity 1
▁completion 1
▁Pedro 1
fel 1
vano 1
zeug 1
▁interior 1
▁Response 1
édia 1
▁WorldCat 1
▁că 1
quel 1
Sol 1
ісля 1
▁Domin 1
▁cum 1
cep 1
▁Muse 1
▁María 1
▁functional 1
▁adapter 1
configuration 1
▁tipo 1
▁Bry 1
vy 1
UL 1
▁travers 1
!( 1
▁absolutely 1
лта 1
ття 1
▁IT 1
▁воен 1
ycle 1
best 1
▁constructed 1
▁филь 1
cido 1
exit 1
gart 1
▁provincia 1
vez 1
cipl 1
▁Facebook 1
▁yellow 1
▁Summer 1
▁pointing 1
▁possibility 1
▁legisl 1
▁мож 1
dern 1
коно 1
▁mechanism 1
▁Bernard 1
expr 1
лови 1
▁digits 1
▁delegate 1
ogram 1
▁Dictionary 1
isy 1
▁spo 1
/$ 1
cluded 1
▁MVC 1
▁tém 1
▁printed 1
▁Gott 1
▁Om 1
ansas 1
▁Durch 1
▁Ident 1
QU 1
htm 1
▁Sul 1
']. 1
▁duty 1
▁Author 1
▁ně 1
owego 1
pus 1
embl 1
Executor 1
BL 1
▁Mens 1
dispatch 1
▁Mid 1
apps 1
Transform 1
▁Dat 1
▁impl 1
oux 1
holm 1
▁Ins 1
▁Empire 1
руп 1
▁Apache 1
SION 1
▁passage 1
################ 1
▁expressed 1
над 1
▁ol 1
▁havia 1
▁более 1
▁enjoy 1
formance 1
▁dimensions 1
▁чер 1
See 1
▁mouth 1
▁gau 1
iency 1
▁Carolina 1
Dist 1
radio 1
limit 1
/? 1
▁Ball 1
ність 1
Member 1
water 1
▁murder 1
▁standing 1
▁VII 1
Center 1
ppa 1
ureau 1
▁Leip 1
▁objet 1
▁Activity 1
embers 1
vr 1
▁condu 1
Cells 1
inus 1
▁', 1
▁afraid 1
▁ха 1
▁Vic 1
testing 1
Tube 1
▁vast 1
PM 1
nih 1
SSN 1
▁Chile 1
ylvan 1
▁Bow 1
▁religion 1
opher 1
▁Coll 1
▁digital 1
zioni 1
Section 1
▁результа 1
Foot 1
convert 1
▁receiving 1
Contact 1
▁hero 1
sam 1
▁posterior 1
owi 1
Ant 1
▁flags 1
▁Zealand 1
▁bounds 1
▁whereas 1
infl 1
Play 1
▁demo 1
▁gibt 1
▁hospital 1
▁volta 1
лё 1
▁fashion 1
▁exceed 1
elenium 1
Iter 1
krie 1
▁integration 1
▁Otherwise 1
adu 1
She 1
onde 1
uint 1
radius 1
▁ram 1
▁álbum 1
▁тур 1
▁dy 1
▁Ott 1
▁пери 1
rev 1
rior 1
íd 1
irat 1
▁вклю 1
▁importante 1
▁Duke 1
▁causa 1
▁Mathemat 1
▁diplom 1
▁Nicol 1
▁exclus 1
▁debugging 1
▁Gh 1
original 1
lyn 1
▁Pla 1
suite 1
chat 1
▁estud 1
uelle 1
▁pert 1
▁importance 1
▁approaches 1
▁dla 1
▁проф 1
Pres 1
<\ 1
prefix 1
SSION 1
роди 1
country 1
itzer 1
▁кор 1
▁singular 1
gov 1
рин 1
▁FA 1
▁matrices 1
olare 1
nika 1
power 1
lla 1
▁desire 1
▁familia 1
дор 1
▁fan 1
generated 1
▁Cos 1
▁że 1
▁Diese 1
mov 1
▁denote 1
")] 1
ouvern 1
aman 1
▁inser 1
ijk 1
otta 1
eral 1
дель 1
()-> 1
▁poder 1
iges 1
▁Online 1
▁weird 1
iac 1
▁quelques 1
èrent 1
▁tel 1
▁Latin 1
verter 1
ляр 1
рои 1
▁pdf 1
▁keyword 1
Handle 1
After 1
rece 1
▁identical 1
stylesheet 1
▁станови 1
▁ka 1
cement 1
тет 1
▁chat 1
▁Mun 1
ała 1
ANT 1
ológ 1
▁fant 1
▁forest 1
▁вико 1
cuss 1
▁sehr 1
pag 1
otic 1
▁áll 1
мати 1
▁"' 1
+" 1
Animation 1
ходит 1
azu 1
▁plays 1
izioni 1
миче 1
▁bomb 1
▁merely 1
▁holding 1
▁wenn 1
▁medic 1
▁speaking 1
ongodb 1
▁Campe 1
inity 1
▁янва 1
()`. 1
luss 1
▁Histoire 1
▁operating 1
Channel 1
▁accuracy 1
▁bos 1
▁evident 1
цию 1
events 1
textrm 1
oreign 1
▁ii 1
hren 1
lower 1
▁том 1
▁About 1
▁aj 1
eri 1
ступи 1
▁digit 1
▁Spain 1
▁Daten 1
▁forme 1
▁шта 1
▁Bach 1
nonumber 1
▁recommended 1
▁reads 1
histoire 1
▁sang 1
▁?? 1
▁стал 1
score 1
fas 1
▁cub 1
▁grew 1
▁centro 1
▁bekannt 1
Events 1
BER 1
hew 1
сса 1
▁majority 1
ître 1
enci 1
▁Query 1
▁które 1
ić 1
▁complexity 1
▁François 1
constraint 1
урна 1
══ 1
▁iterate 1
lett 1
peror 1
▁Nederland 1
share 1
▁inclu 1
änger 1
▁Nic 1
чо 1
Full 1
▁rapport 1
eclipse 1
▁industry 1
headers 1
▁Ри 1
chsel 1
▁polic 1
schied 1
%, 1
OD 1
▁Jak 1
({\ 1
aligned 1
▁frequently 1
▁suoi 1
▁essentially 1
▁Ric 1
▁reports 1
▁decimal 1
rar 1
▁Foo 1
▁Ka 1
▁DC 1
▁simpler 1
Pane 1
?} 1
Sort 1
▁posit 1
cdn 1
ktur 1
▁awk 1
зер 1
PF 1
uur 1
▁Ross 1
▁mant 1
Na 1
Cons 1
)))) 1
▁techniques 1
impl 1
▁dropped 1
▁Lista 1
▁Basically 1
ental 1
▁celui 1
▁strategy 1
▁Wales 1
nan 1
▁gmin 1
▁größ 1
▁eerste 1
Tim 1
nten 1
resp 1
▁stable 1
nov 1
rob 1
ној 1
▁marriage 1
getString 1
Author 1
▁Graf 1
▁diagram 1
gia 1
Network 1
▁composed 1
▁missed 1
▁Meg 1
▁право 1
▁homonymes 1
▁Books 1
▁encou 1
porte 1
▁rotation 1
▁fir 1
тельно 1
▁gun 1
▁Aff 1
нок 1
▁Fußball 1
▁Story 1
▁Chap 1
▁). 1
▁Seit 1
мон 1
▁télé 1
▁copied 1
▁consistent 1
▁drink 1
▁Cham 1
▁matters 1
▁rendered 1
▁hypoth 1
œuv 1
▁meer 1
▁parsing 1
▁PRO 1
series 1
▁zá 1
straße 1
▁Boot 1
▁repo 1
wor 1
▁Stream 1
▁AN 1
▁пів 1
▁SM 1
▁Arn 1
▁Ž 1
▁[]; 1
Resources 1
▁elabor 1
▁Eth 1
▁liste 1
▁relatively 1
chant 1
="" 1
▁lift 1
CN 1
Services 1
MENT 1
▁игра 1
бре 1
▁Jord 1
▁tec 1
шка 1
▁Sup 1
▁influen 1
onds 1
handler 1
▁banda 1
▁vertices 1
▁zap 1
▁cord 1
alter 1
zenia 1
âteau 1
▁knowing 1
▁Argentina 1
Area 1
ане 1
fc 1
="/ 1
▁Mik 1
ată 1
ieux 1
▁deutschen 1
▁traditional 1
decode 1
vex 1
▁sizeof 1
▁Fun 1
▁parser 1
▁Florida 1
▁buildings 1
▁Manuel 1
rile 1
▁logged 1
▁strongly 1
▁revol 1
нее 1
xico 1
▁Fair 1
cart 1
▁Wort 1
▁Jesus 1
emes 1
schrift 1
InputStream 1
wad 1
▁grandes 1
▁número 1
▁Otto 1
ientes 1
▁famous 1
ologne 1
Je 1
ниш 1
▁Guerra 1
bara 1
▁cad 1
elve 1
brace 1
▁Jr 1
stable 1
ECT 1
lemma 1
mediate 1
▁vin 1
▁monument 1
▁cv 1
▁winter 1
▁transformation 1
▁Nick 1
stronom 1
▁frag 1
▁intel 1
raction 1
▁considering 1
▁Fle 1
▁ло 1
▁Après 1
▁AM 1
▁Hum 1
▁mundo 1
NER 1
▁Below 1
▁города 1
arters 1
--" 1
▁Пе 1
ît 1
▁txt 1
angers 1
▁thy 1
CLA 1
ibles 1
▁requested 1
▁Alexand 1
▁factors 1
▁produces 1
ningen 1
▁состоя 1
▁optimization 1
chod 1
>` 1
▁Wikip 1
nosti 1
▁competition 1
▁Hann 1
▁zona 1
dc 1
design 1
▁Zu 1
▁espec 1
equality 1
▁Abb 1
▁developer 1
▁"^ 1
▁Short 1
▁plans 1
▁vit 1
izable 1
burgh 1
agem 1
▁Print 1
ív 1
▁suitable 1
picker 1
Profile 1
andy 1
▁quot 1
▁Durante 1
▁Francia 1
▁tart 1
▁Venez 1
▁dispatch 1
▁observations 1
▁ż 1
Invalid 1
▁occurr 1
тки 1
Memento 1
▁Syd 1
▁tiempo 1
▁staff 1
▁sections 1
▁ssh 1
▁NGC 1
ël 1
▁erre 1
▁divided 1
▁Without 1
▁durant 1
▁jaar 1
▁− 1
▁soldiers 1
унк 1
lapse 1
▁Valley 1
▁(: 1
rera 1
▁dével 1
▁péri 1
▁calculation 1
▁keine 1
ertain 1
▁теле 1
руд 1
▁cul 1
▁cloth 1
;} 1
▁przed 1
Month 1
Picker 1
▁SV 1
arian 1
▁Review 1
▁hang 1
▁окт 1
▁Front 1
otlin 1
▁translation 1
▁modo 1
▁statistics 1
▁Nue 1
▁Никола 1
NUM 1
▁ships 1
▁Report 1
{[ 1
Effect 1
ieri 1
▁parties 1
pla 1
rw 1
▁Works 1
▁iron 1
▁attract 1
▁cort 1
ná 1
▁Steve 1
▁bene 1
тон 1
ícula 1
Two 1
▁глав 1
▁Video 1
▁powerful 1
auch 1
mande 1
ächst 1
Lat 1
▁zna 1
▁figures 1
▁alias 1
nex 1
▁categories 1
called 1
▁Similar 1
▁girls 1
pez 1
▁joint 1
рого 1
iken 1
чина 1
ancia 1
▁tijd 1
▁Rose 1
▁algorithms 1
▁printing 1
nea 1
▁executing 1
▁lambda 1
▁regional 1
▁Copa 1
Foo 1
phys 1
zm 1
▁Laur 1
▁candidate 1
▁Ja 1
zym 1
Example 1
▁spiel 1
▁дей 1
nehmen 1
keiten 1
▁сент 1
intent 1
.( 1
▁первы 1
prom 1
▁nat 1
▁imagine 1
callback 1
components 1
without 1
▁aquest 1
Support 1
▁responsible 1
▁jego 1
lj 1
will 1
lean 1
eland 1
ología 1
mc 1
Proxy 1
▁ocup 1
▁находи 1
▁rub 1
нів 1
▁Fall 1
amos 1
▁Ep 1
entre 1
fail 1
World 1
▁Editor 1
▁expos 1
▁finds 1
▁Culture 1
LEASE 1
▁movie 1
<= 1
ometric 1
eling 1
numerable 1
ourd 1
▁Sea 1
▁bild 1
▁оста 1
blo 1
▁lose 1
ateurs 1
oured 1
▁Batt 1
<unk12> 1
▁poz 1
posts 1
pend 1
certain 1
ником 1
Just 1
webkit 1
demás 1
~~~~ 1
▁indicates 1
▁park 1
rique 1
vod 1
▁Champ 1
ftware 1
OPT 1
django 1
release 1
▁È 1
SR 1
▁politician 1
▁roi 1
aturen 1
▁Deutsche 1
tagon 1
▁Mov 1
obierno 1
▁daß 1
uther 1
indi 1
▁Wikipedia 1
▁anos 1
▁observe 1
elly 1
▁railway 1
aton 1
▁enum 1
hus 1
▁inhab 1
Psi 1
oire 1
▁Хо 1
▁Space 1
▁Архи 1
▁anterior 1
▁Ł 1
isons 1
Il 1
▁améric 1
laps 1
▁BBC 1
QUEST 1
Constra 1
mont 1
äft 1
▁även 1
ubern 1
<!-- 1
▁coding 1
theory 1
athed 1
▁Arbe 1
▁ши 1
forEach 1
omorphism 1
details 1
achsen 1
integr 1
Vor 1
Unknown 1
aceae 1
inue 1
esome 1
▁Fir 1
chain 1
▁extremely 1
multicol 1
▁Swift 1
▁addresses 1
hspace 1
▁Roger 1
▁dessen 1
▁consequ 1
ualmente 1
▁Premier 1
▁Record 1
▁Bron 1
kir 1
sex 1
intern 1
▁benefit 1
umen 1
▁becoming 1
▁lig 1
▁popula 1
osc 1
▁civ 1
▁greatest 1
▁proces 1
]* 1
▁место 1
▁'$ 1
hell 1
("\ 1
▁nine 1
▁Fac 1
ulpt 1
jours 1
▁Copy 1
▁activities 1
▁Democr 1
Es 1
Success 1
▁Esta 1
itul 1
isti 1
▁Bed 1
jas 1
▁тем 1
▁Hung 1
Game 1
▁heav 1
onnées 1
▁branches 1
borg 1
▁vl 1
▁slowly 1
Fa 1
Google 1
emi 1
▁circumstances 1
▁'% 1
▁Und 1
▁Victoria 1
▁Typ 1
rupted 1
▁relativ 1
▁slo 1
▁padre 1
▁daily 1
▁orth 1
чний 1
▁französ 1
▁teil 1
▁Security 1
ordon 1
▁sweet 1
SIZE 1
▁Cel 1
ètres 1
ommes 1
▁сі 1
▁efforts 1
ąz 1
▁ohne 1
▁Southern 1
▁approximately 1
цен 1
('# 1
▁saving 1
nbsp 1
▁translate 1
▁În 1
member 1
▁laws 1
▁жен 1
▁систе 1
tc 1
>\ 1
elte 1
▁ehem 1
▁contrad 1
▁рус 1
ья 1
▁Middle 1
quip 1
▁chez 1
Fields 1
▁permit 1
ikel 1
▁wir 1
▁trial 1
▁verschied 1
▁фев 1
▁male 1
▁язы 1
▁nyel 1
akter 1
▁denomin 1
ceptor 1
▁Wat 1
▁fino 1
▁XVIII 1
ryption 1
desc 1
apa 1
лена 1
▁kol 1
▁Є 1
▁dependent 1
▁Cra 1
▁storm 1
▁Гер 1
▁pipe 1
▁attended 1
▁vita 1
uzione 1
czas 1
onda 1
▁bold 1
Columns 1
ició 1
▁czę 1
▁извест 1
▁Cloud 1
▁warm 1
▁сы 1
▁сте 1
▁producer 1
▁Ludwig 1
▁Northern 1
łą 1
NSString 1
▁Had 1
▁Иван 1
▁Eg 1
▁Imp 1
ші 1
▁Auch 1
ток 1
▁Hit 1
▁quien 1
▁department 1
▁erhielt 1
▁ui 1
▁Spr 1
сер 1
ourt 1
▁Stephen 1
team 1
▁zip 1
▁Bang 1
▁growth 1
▁jam 1
▁Kais 1
bmatrix 1
▁Asia 1
▁région 1
=/ 1
▁Pacific 1
▁authority 1
▁#[ 1
тами 1
▁everyone 1
▁attend 1
▁timestamp 1
▁tries 1
▁ff 1
шей 1
▁developing 1
olt 1
ups 1
▁momento 1
▁Sain 1
Term 1
▁celle 1
GR 1
Mouse 1
▁человек 1
▁Collection 1
âtre 1
▁Write 1
▁Pom 1
[- 1
Cam 1
▁locations 1
▁Json 1
elled 1
selector 1
repeat 1
ctors 1
otte 1
визи 1
ände 1
▁achieved 1
▁mainly 1
________ 1
!) 1
▁является 1
▁cities 1
single 1
гре 1
▁Pak 1
▁allowing 1
ferred 1
▁апре 1
ходя 1
▁browsers 1
▁escrit 1
▁mountain 1
▁networks 1
kind 1
liver 1
▁closing 1
▁skip 1
út 1
▁duration 1
était 1
▁scr 1
BB 1
ória 1
▁Kultur 1
▁outputs 1
multicolumn 1
▁belongs 1
feature 1
ucky 1
▁juli 1
▁района 1
зво 1
factory 1
Func 1
▁utter 1
▁TODO 1
▁obt 1
ategories 1
▁combine 1
▁Wall 1
▁underlying 1
arono 1
▁Prote 1
ców 1
stan 1
▁Gew 1
▁optimal 1
▁Archivlink 1
▁Script 1
▁destroyed 1
хе 1
▁Firefox 1
▁sole 1
Layer 1
тку 1
▁stores 1
▁displays 1
ishing 1
▁ост 1
▁instant 1
▁elő 1
▁habitantes 1
▁Einwo 1
▁ali 1
▁ERROR 1
▁ahead 1
▁goals 1
▁már 1
▁są 1
▁mart 1
министра 1
Fr 1
▁Villa 1
▁Marc 1
ropy 1
agram 1
hape 1
мей 1
▁AL 1
▁connexes 1
▁Entre 1
Step 1
лів 1
▁Death 1
▁rise 1
▁fos 1
▁lev 1
gabe 1
▁broke 1
products 1
▁medi 1
▁dispon 1
Package 1
ImageView 1
▁Nag 1
ują 1
Word 1
▁kole 1
ßer 1
)`. 1
▁rol 1
▁í 1
тей 1
Progress 1
bean 1
▁sempre 1
Statement 1
UPDATE 1
▁mondiale 1
▁wrapper 1
▁Chart 1
▁onClick 1
чення 1
LOG 1
something 1
▁INSERT 1
щения 1
uet 1
werp 1
round 1
ichen 1
▁XVI 1
зни 1
▁aveva 1
▁Store 1
▁xs 1
racht 1
scar 1
▁opera 1
▁degrees 1
▁citiz 1
äsident 1
▁classical 1
▁Jersey 1
▁ersch 1
▁treatment 1
▁насеље 1
ння 1
▁boost 1
amount 1
▁созда 1
érieur 1
▁telling 1
Has 1
▁initi 1
▁Пи 1
eval 1
▁Match 1
▁corre 1
Pointer 1
▁passes 1
company 1
▁ан 1
aches 1
▁siglo 1
нем 1
▁exchange 1
cito 1
▁Bab 1
Doc 1
ześ 1
▁народ 1
▁conflict 1
▁november 1
eau 1
öv 1
▁Hub 1
▁poco 1
ensa 1
schließ 1
lasse 1
datas 1
▁сти 1
univers 1
eks 1
▁Cho 1
▁cô 1
▁(. 1
ewnę 1
▁Chief 1
▁chef 1
▁управ 1
uli 1
▁''' 1
napshot 1
▁relac 1
ége 1
wt 1
wend 1
osing 1
▁hacer 1
▁фран 1
autres 1
▁fils 1
ered 1
▁Посилання 1
▁therm 1
ержа 1
such 1
▁ihren 1
▁encontr 1
▁lots 1
logo 1
▁Wi 1
/( 1
шње 1
DATA 1
▁Player 1
▁Leipzig 1
▁relatives 1
рев 1
▁newsp 1
?, 1
▁Stutt 1
▁dual 1
▁companies 1
▁zam 1
putation 1
▁inequality 1
▁trem 1
hips 1
anch 1
▁Ż 1
бург 1
▁copies 1
dash 1
вор 1
spieler 1
▁Revolution 1
esty 1
▁junto 1
▁Indeed 1
okal 1
ctrine 1
▁Ford 1
▁CREATE 1
▁walls 1
▁aute 1
SU 1
why 1
plementation 1
rout 1
Matrix 1
▁sad 1
ана 1
▁Pic 1
.“ 1
▁AC 1
▁Fest 1
▁desktop 1
▁Pay 1
ometimes 1
▁Tak 1
раб 1
▁Sever 1
▁northern 1
anter 1
▁Modern 1
wal 1
<unk13> 1
online 1
ök 1
▁britann 1
$_ 1
▁jar 1
TL 1
xxxx 1
merge 1
▁Namen 1
▁KEY 1
▁refers 1
▁hin 1
▁Volks 1
steller 1
viation 1
onio 1
ighter 1
Compat 1
▁CE 1
▁pró 1
▁encuentra 1
theorem 1
▁publi 1
▁Development 1
нд 1
▁ros 1
▁shr 1
seau 1
▁generating 1
▁difficulty 1
▁Express 1
Alignment 1
deutsch 1
▁Влади 1
▁suggests 1
▁Family 1
bbi 1
]). 1
staw 1
▁presidente 1
▁stesso 1
inx 1
setup 1
▁conform 1
▁fro 1
=\" 1
▁då 1
iciones 1
▁evolution 1
prote 1
▁prints 1
▁Pont 1
▁confusion 1
▁Й 1
▁dello 1
▁manif 1
Definition 1
ára 1
mals 1
▁sale 1
▁dropdown 1
Chain 1
American 1
▁mk 1
▁Bez 1
▁Fue 1
▁NE 1
графи 1
docker 1
▁^{ 1
Assert 1
▁horizontal 1
(@" 1
▁дву 1
proxy 1
Uri 1
gency 1
▁"[ 1
▁Qt 1
▁Names 1
▁evaluate 1
!/ 1
▁einges 1
▁synth 1
▁YouTube 1
▁turning 1
▁Eric 1
▁бли 1
▁klub 1
plorer 1
▁sports 1
▁sia 1
ош 1
▁dai 1
▁europe 1
icians 1
ingsområ 1
▁dre 1
▁workaround 1
▁suit 1
ambigu 1
▁quantity 1
▁segundo 1
Symbol 1
▁moral 1
Chart 1
▁damit 1
▁attempts 1
▁donn 1
jos 1
▁ere 1
▁homme 1
simp 1
rypted 1
▁acts 1
innerHTML 1
▁tournament 1
▁sky 1
Timer 1
▁millions 1
^+ 1
agent 1
')); 1
▁ost 1
▁gla 1
▁помо 1
▁fün 1
ством 1
ewnętrz 1
▁México 1
▁lub 1
▁Éd 1
ifik 1
ческий 1
▁immer 1
ensen 1
anny 1
inline 1
▁gover 1
auc 1
▁repre 1
▁historia 1
Ag 1
▁plt 1
▁Princi 1
imeter 1
ős 1
še 1
▁UE 1
Equals 1
Dispatch 1
legen 1
лази 1
чной 1
▁stell 1
ńst 1
▁cri 1
▁Indep 1
ède 1
}\) 1
▁wyst 1
▁figured 1
ATCH 1
ében 1
lacht 1
▁succeeded 1
gry 1
▁pret 1
▁Saf 1
▁"); 1
eh 1
▁officiel 1
країн 1
wind 1
▁scatter 1
▁Fox 1
icious 1
Many 1
uper 1
▁Convert 1
sterd 1
▁Stein 1
▁От 1
}^{( 1
between 1
hire 1
▁onCreate 1
;</ 1
bably 1
SY 1
mot 1
▁Dire 1
itecture 1
той 1
▁coordinate 1
("# 1
▁süd 1
OB 1
▁morte 1
▁weather 1
▁hely 1
▁privile 1
RELEASE 1
atel 1
▁recognized 1
▁Though 1
ссий 1
memory 1
▁compilation 1
bits 1
▁wed 1
}}_{ 1
▁GUI 1
пня 1
▁southern 1
▁hay 1
ović 1
lauf 1
▁EL 1
▁Full 1
▁Hamburg 1
▁Mittel 1
DU 1
approx 1
HS 1
▁проце 1
▁magazine 1
▁Mig 1
▁clicking 1
entr 1
▁autre 1
▁té 1
▁há 1
сты 1
▁MA 1
appy 1
ství 1
▁selon 1
▁gek 1
▁Sl 1
frastr 1
Lib 1
▁Ду 1
▁facing 1
▁стар 1
▁Dutch 1
atar 1
▁keeps 1
▁Patrick 1
ilio 1
▁vig 1
тва 1
▁Federal 1
▁paragraph 1
▁interaction 1
▁occas 1
▁Iran 1
▁machines 1
(() 1
uries 1
▁роди 1
▁американ 1
upp 1
▁ice 1
▁Say 1
▁sail 1
▁Begin 1
fico 1
oga 1
▁desar 1
▁dv 1
▁ради 1
ohen 1
erei 1
ának 1
▁daar 1
ifiers 1
▁thee 1
▁byla 1
вала 1
andro 1
▁моло 1
▁totally 1
iom 1
▁aer 1
nsylvan 1
▁corps 1
▁treated 1
▁comune 1
Mich 1
voice 1
pgf 1
▁anx 1
▁Philip 1
▁ek 1
▁Menschen 1
▁dere 1
▁permet 1
Mail 1
▁Vé 1
ented 1
▁bunch 1
▁Piet 1
attach 1
▁porte 1
дат 1
▁Britain 1
Encoding 1
▁`< 1
Space 1
▁rap 1
▁popul 1
floor 1
specific 1
clean 1
▁conqu 1
fb 1
▁introduce 1
▁Entity 1
▁erfolg 1
atol 1
ientos 1
кипеди 1
▁Ut 1
▁бри 1
eduler 1
▁concentr 1
▁cher 1
▁upgrade 1
▁pictures 1
▁Familie 1
Mus 1
Look 1
▁eran 1
▁gram 1
▁Wo 1
npm 1
▁Salv 1
▁cd 1
▁Вы 1
wahl 1
train 1
chem 1
▁Pil 1
▁Connect 1
če 1
▁hast 1
▁Multi 1
atta 1
▁Sound 1
solute 1
▁quote 1
▁obst 1
cciones 1
ibly 1
▁brand 1
▁conversation 1
▁toutes 1
▁Rub 1
ienia 1
irit 1
▁Анд 1
eduled 1
▁Total 1
Dig 1
erem 1
▁ski 1
Dest 1
YY 1
еди 1
aly 1
▁backend 1
ulus 1
▁featured 1
▁personn 1
▁schon 1
trace 1
▁IDE 1
áj 1
▁animals 1
▁snow 1
uve 1
uerto 1
▁drew 1
▁Yeah 1
▁Sv 1
\,\ 1
▁Serie 1
▁secondo 1
▁Lebens 1
▁accord 1
▁Cet 1
erade 1
▁despite 1
▁Carlo 1
▁zewnętrz 1
▁lista 1
nico 1
▁Corporation 1
vspace 1
▁войны 1
▁stands 1
▁worse 1
▁simult 1
▁practical 1
COL 1
changed 1
▁История 1
бри 1
indo 1
▁Lewis 1
▁patterns 1
ifica 1
▁smart 1
▁concerned 1
ții 1
▁Hello 1
rell 1
▁Lex 1
▁вто 1
▁conditional 1
otted 1
▁shoot 1
▁Wed 1
▁марта 1
aud 1
▁ante 1
ientras 1
▁papers 1
▁portug 1
▁Management 1
▁exercise 1
▁Begriff 1
commit 1
▁rendering 1
▁czas 1
Drop 1
erg 1
▁mul 1
▁Tan 1
iero 1
▁locale 1
▁inaug 1
dump 1
ций 1
▁symbols 1
inta 1
▁awarded 1
▁sust 1
▁Send 1
їв 1
Rest 1
zten 1
лим 1
rival 1
PORT 1
ölker 1
imately 1
igte 1
чных 1
▁terra 1
öglich 1
▁Hom 1
▁hex 1
done 1
amps 1
▁cet 1
PRE 1
öst 1
▁femme 1
Selection 1
▁zaw 1
spr 1
▁horses 1
▁snap 1
TextBox 1
▁Eclipse 1
ulle 1
owym 1
▁comer 1
necess 1
cook 1
enger 1
--> 1
▁pří 1
pandas 1
▁Plus 1
yll 1
▁terror 1
▁crim 1
▁zak 1
issue 1
panel 1
svg 1
▁reb 1
Customer 1
switch 1
обра 1
▁Championships 1
clo 1
atte 1
▁anymore 1
▁excellent 1
▁opportunity 1
▁Bahn 1
чин 1
eting 1
▁incident 1
tom 1
Pers 1
bben 1
ственной 1
их 1
router 1
▁newly 1
▁silence 1
▁GNU 1
▁Rails 1
▁Amb 1
▁Qual 1
▁Schaus 1
▁Sohn 1
▁ALL 1
▁royal 1
▁£ 1
wię 1
▁entfer 1
▁Remove 1
▁hardly 1
Using 1
лог 1
▁Ich 1
▁derni 1
▁Connection 1
fish 1
▁Inform 1
▁Ener 1
roit 1
Bbb 1
ViewModel 1
Video 1
iley 1
▁много 1
▁Gem 1
▁compreh 1
enumerate 1
ulas 1
▁Bah 1
▁Yet 1
BR 1
хра 1
▁county 1
▁Hist 1
▁Гу 1
▁Ј 1
▁mari 1
▁Clar 1
Bitmap 1
▁Cz 1
▁mån 1
▁mere 1
▁musique 1
also 1
dates 1
▁DVD 1
▁gol 1
fony 1
▁Castle 1
▁фами 1
▁arrang 1
▁Business 1
▁Kaz 1
▁osc 1
▁secolo 1
▁affected 1
▁Health 1
reb 1
editor 1
▁owned 1
tl 1
▁ví 1
чних 1
кви 1
▁devient 1
Mutable 1
▁tegen 1
Register 1
єю 1
▁caracter 1
лли 1
▁nouvelle 1
oko 1
ichtet 1
▁evol 1
▁Hab 1
▁militar 1
▁puts 1
endif 1
▁Davis 1
▁Scotland 1
regular 1
▁Context 1
ispiel 1
▁Gallery 1
<unk14> 1
▁arc 1
▁INFO 1
▁cod 1
дів 1
▁varchar 1
▁toujours 1
atial 1
▁hanno 1
▁профес 1
▁launched 1
▁населення 1
▁ton 1
aused 1
▁із 1
▁tö 1
▁Pur 1
▁olymp 1
ARN 1
óm 1
▁august 1
▁furn 1
▁Colomb 1
▁Staats 1
hora 1
▁мор 1
canvas 1
▁grave 1
▁composition 1
acja 1
▁которые 1
▁чо 1
General 1
ані 1
▁Johannes 1
кар 1
▁част 1
▁Васи 1
ssh 1
▁replacing 1
▁<> 1
ців 1
laus 1
eny 1
ähl 1
▁marg 1
cience 1
▁instruction 1
▁који 1
Editor 1
▁fundamental 1
mund 1
▁exceptions 1
▁plate 1
▁Lis 1
▁deren 1
prep 1
▁januari 1
Scope 1
ynast 1
rv 1
orsz 1
▁Tony 1
▁ді 1
▁одна 1
▁sab 1
oti 1
jel 1
▁generator 1
▁'. 1
▁sharp 1
▁только 1
▁accounts 1
▁že 1
▁foram 1
▁gouvern 1
TIME 1
▁Soviet 1
▁Gé 1
▁exped 1
▁ordinary 1
▁Conserv 1
▁compla 1
tei 1
▁captain 1
▁Samuel 1
▁Dark 1
▁він 1
▁delight 1
recht 1
dia 1
esses 1
ulp 1
шки 1
bez 1
▁detection 1
▁cookie 1
antry 1
Multi 1
oba 1
▁joy 1
▁safety 1
|^ 1
pod 1
adém 1
▁Chron 1
▁Django 1
▁ehemal 1
kh 1
èle 1
▁poc 1
Bottom 1
launch 1
nem 1
▁GROUP 1
ního 1
▁Gib 1
sdk 1
BE 1
▁Gene 1
▁Staff 1
▁subsequent 1
icion 1
▁victory 1
▁canon 1
izar 1
izia 1
▁mate 1
▁layers 1
sudo 1
schule 1
periment 1
ület 1
ARCHAR 1
▁террито 1
▁measures 1
▁zou 1
opsis 1
нами 1
tbody 1
▁ese 1
sterdam 1
▁photo 1
ynchronous 1
setminus 1
▁loads 1
▁pleasure 1
▁meille 1
}\, 1
qual 1
▁favour 1
▁rod 1
Der 1
рабо 1
▁pressed 1
rę 1
ieving 1
material 1
virt 1
▁capable 1
сло 1
ushed 1
▁побе 1
usetts 1
unsigned 1
ków 1
▁ov 1
egeben 1
▁applying 1
▁galax 1
▁Oracle 1
▁Stuttgart 1
Infl 1
achusetts 1
▁deel 1
lire 1
▁statunit 1
▁Politiker 1
▁beauty 1
)> 1
▁Columbia 1
▁zewnętrzne 1
▁програ 1
▁dx 1
cknow 1
▁dub 1
unächst 1
findViewById 1
▁Mand 1
áll 1
naire 1
▁destin 1
isting 1
aggi 1
chart 1
▁justice 1
Simple 1
▁unfortunately 1
ір 1
▁questa 1
▁Governor 1
яв 1
▁música 1
▁equipo 1
▁Dest 1
elect 1
StackTrace 1
зом 1
proc 1
entin 1
adora 1
▁Лю 1
▁registered 1
HL 1
facebook 1
▁storing 1
▁Currently 1
▁quadr 1
Standard 1
trim 1
ears 1
sender 1
▁Vas 1
▁edific 1
▁Bür 1
▁Country 1
tha 1
;" 1
nor 1
▁Doctor 1
rument 1
Gen 1
▁Buen 1
rade 1
▁kun 1
navigation 1
Pay 1
▁captured 1
▁struck 1
venir 1
ément 1
▁Tree 1
▁xx 1
▁narr 1
льного 1
▁installing 1
▁association 1
▁inserted 1
erner 1
validate 1
▁lut 1
▁glo 1
▁technology 1
▁Place 1
$? 1
▁zv 1
слі 1
EP 1
▁atmos 1
ugo 1
ért 1
▁Werk 1
▁%} 1
tele 1
Span 1
▁Raj 1
▁Personen 1
▁Cant 1
▁combat 1
▁observation 1
parameter 1
▁agreed 1
pur 1
▁shadow 1
▁gł 1
Keys 1
Cred 1
ouri 1
▁pale 1
ické 1
▁Week 1
▁Prime 1
>. 1
Initial 1
▁один 1
▁'', 1
▁учи 1
▁Inv 1
cola 1
cible 1
▁Theatre 1
▁bem 1
▁satisfy 1
xl 1
▁разви 1
▁pixel 1
lán 1
▁twee 1
çon 1
нения 1
▁AT 1
ège 1
▁Mort 1
▁mysq 1
ften 1
▁пес 1
éma 1
▁Services 1
customer 1
▁AWS 1
ът 1
▁Ach 1
%. 1
▁clarify 1
▁университе 1
xture 1
umi 1
▁så 1
▁Pel 1
serial 1
URI 1
▁rg 1
▁соста 1
chestra 1
].[ 1
wen 1
▁Londres 1
▁anys 1
DataSource 1
▁районе 1
▁rein 1
▁metadata 1
umble 1
arbeit 1
hner 1
cient 1
▁norte 1
▁она 1
▁scored 1
▁ray 1
▁февра 1
▁protagon 1
▁Sac 1
▁commonly 1
LinearLayout 1
▁applic 1
▁мая 1
За 1
▁accessible 1
iewer 1
flag 1
▁Rück 1
äu 1
▁erano 1
▁authentic 1
▁Ry 1
▁неско 1
▁embargo 1
▁dry 1
▁reasonable 1
▁Module 1
▁acceler 1
▁interview 1
▁Creek 1
▁alpha 1
serie 1
They 1
ючи 1
▁Hof 1
▁CR 1
modal 1
▁sequences 1
closed 1
)}$ 1
▁Чер 1
▁ORDER 1
Rightarrow 1
hausen 1
}}_ 1
▁també 1
▁magnetic 1
▁McC 1
▁winning 1
underline 1
▁Billboard 1
naio 1
▁liqu 1
displaystyle 1
timeout 1
▁considerable 1
▁eben 1
ifferent 1
anu 1
▁Сов 1
[( 1
▁:-) 1
leitung 1
formed 1
▁Manager 1
▁onclick 1
TY 1
тах 1
CV 1
runtime 1
poque 1
▁Ло 1
Temp 1
loaded 1
▁!== 1
▁singer 1
far 1
▁Comple 1
▁Österreich 1
Policy 1
▁worker 1
Wrapper 1
obi 1
▁discussed 1
▁buy 1
▁января 1
▁Din 1
▁ged 1
ској 1
Europe 1
▁tall 1
hos 1
лаго 1
▁Block 1
▁identified 1
ListView 1
▁attempting 1
▁typical 1
psum 1
oster 1
▁журна 1
Pe 1
merce 1
▁unexpected 1
hui 1
letter 1
▁nuevo 1
▁або 1
▁VALUES 1
▁Iz 1
Flags 1
▁TRUE 1
ización 1
▁growing 1
estre 1
▁poly 1
▁Stone 1
▁VIII 1
▁localhost 1
ählt 1
▁embedded 1
jdbc 1
▁convention 1
▁scala 1
сок 1
▁analog 1
▁"+ 1
цю 1
occ 1
▁litt 1
PN 1
▁актив 1
attributes 1
▁Ferd 1
▁azure 1
ști 1
ños 1
ping 1
▁teacher 1
}& 1
ipe 1
▁Nob 1
▁има 1
Bind 1
▁magic 1
▁Transport 1
ixel 1
▁computed 1
agna 1
erst 1
HA 1
Wait 1
▁authors 1
▁;) 1
clam 1
▁Pennsylvan 1
▁drug 1
▁vain 1
▁employed 1
▁individuals 1
▁ange 1
utat 1
▁$- 1
correct 1
▁experiments 1
Argument 1
▁IB 1
▁père 1
▁Brian 1
berger 1
Mac 1
iast 1
Perm 1
Cast 1
▁{}; 1
▁Student 1
▁statt 1
algebra 1
▁equals 1
▁projet 1
▁président 1
ActivityThread 1
▁einz 1
enia 1
rez 1
essional 1
▁августа 1
override 1
news 1
▁planet 1
nn 1
▁Wis 1
твер 1
▁Valid 1
▁Gef 1
град 1
▁eig 1
antom 1
▁Meister 1
flags 1
fficiale 1
шая 1
-, 1
ationen 1
mouse 1
standard 1
Single 1
▁bol 1
isis 1
▁fruit 1
course 1
itants 1
▁étaient 1
TextField 1
▁фон 1
▁aircraft 1
▁ISSN 1
▁western 1
▁representing 1
Esp 1
▁Else 1
▁sizes 1
▁satisfied 1
otos 1
UD 1
Final 1
ój 1
ève 1
▁Roy 1
ffen 1
▁salt 1
▁Label 1
Sk 1
▁кре 1
▁Литература 1
▁см 1
Attributes 1
aye 1
ськ 1
▁высо 1
-) 1
oses 1
calcul 1
▁Cannot 1
Generic 1
emo 1
▁Autor 1
лён 1
лага 1
vote 1
licates 1
rus 1
éli 1
opf 1
atique 1
scala 1
▁Ohio 1
▁Britann 1
▁bef 1
▁Евро 1
▁Career 1
isée 1
ót 1
bose 1
▁Бер 1
▁Controller 1
pole 1
▁allen 1
▁hack 1
▁extent 1
▁calci 1
Mer 1
▁summary 1
Mart 1
▁historical 1
imat 1
bud 1
▁FOR 1
export 1
edi 1
Mapping 1
▁Ay 1
▁Ruby 1
▁definitions 1
▁{$ 1
▁yours 1
rias 1
Touch 1
▁Gaz 1
▁Autom 1
▁истори 1
▁delen 1
▁Kinder 1
}}% 1
▁performing 1
FR 1
▁Sig 1
▁Brad 1
bras 1
▁Jar 1
pkg 1
wr 1
▁Pays 1
NC 1
▁opposed 1
Try 1
▁везе 1
▁Bog 1
▁writes 1
▁stories 1
▁mater 1
▁stagione 1
▁sty 1
▁compatible 1
heast 1
▁Guy 1
egründ 1
▁identifier 1
▁heads 1
пози 1
▁stup 1
▁tf 1
▁још 1
▁Hugh 1
▁cards 1
ovy 1
▁Toast 1
allas 1
▁públic 1
▁assumes 1
▁чемпиона 1
ycler 1
▁Junior 1
▁Fich 1
▁estimated 1
zerw 1
dialog 1
шин 1
shell 1
▁них 1
▁pitch 1
дол 1
outube 1
▁Santi 1
OnClickListener 1
▁Magyar 1
▁vue 1
ião 1
▁`# 1
collect 1
▁Rou 1
analysis 1
istrzost 1
▁Digital 1
▁crist 1
riere 1
▁campo 1
Us 1
▁circa 1
▁Component 1
▁NSString 1
pd 1
▁prince 1
▁invoke 1
▁Marine 1
Allow 1
estic 1
ристи 1
bone 1
туры 1
▁passion 1
áció 1
▁orn 1
вед 1
▁invari 1
▁ні 1
Remove 1
encies 1
ilib 1
▁Director 1
"" 1
▁Conse 1
googleapis 1
ók 1
▁Укра 1
▁Having 1
Domain 1
ierz 1
нологи 1
Cho 1
undefined 1
alloc 1
▁pied 1
▁fraction 1
bia 1
▁поло 1
ugno 1
minister 1
▁principale 1
▁refused 1
browser 1
*, 1
▁Hospital 1
▁universal 1
▁Ernst 1
who 1
▁Gard 1
'_ 1
conde 1
▁[{ 1
sob 1
▁Crit 1
▁декабря 1
▁punto 1
▁eingesetzt 1
▁tör 1
▁Ni 1
▁worry 1
▁legend 1
▁були 1
▁komm 1
rijk 1
effect 1
Ori 1
RES 1
▁Peters 1
▁Baron 1
▁Got 1
▁honest 1
äre 1
ász 1
▁noble 1
▁conclusion 1
▁formatting 1
▁otto 1
▁deleg 1
мб 1
ptop 1
▁sends 1
urname 1
▁festival 1
,‎ 1
рус 1
▁doch 1
subject 1
▁careful 1
quent 1
▁Load 1
temperaturen 1
▁rue 1
Memory 1
ța 1
iona 1
▁dentro 1
▁begann 1
▁Aqu 1
▁scientific 1
kań 1
лок 1
elde 1
▁Those 1
quier 1
actér 1
▁Auflage 1
)' 1
▁gradient 1
integer 1
▁Import 1
SK 1
▁Status 1
▁explo 1
AE 1
Shell 1
▁Paulo 1
.» 1
}</ 1
flex 1
▁комп 1
onden 1
accept 1
▁miejsce 1
Hub 1
alleng 1
WN 1
▁implementing 1
▁лу 1
▁confusing 1
▁Install 1
▁rou 1
▁проек 1
Accessor 1
љашње 1
odio 1
▁applies 1
ющий 1
▁Mundial 1
État 1
ietnam 1
hum 1
▁сбор 1
ordinate 1
France 1
▁prend 1
eltemperaturen 1
▁trabaj 1
Axis 1
▁мно 1
primary 1
▁Seite 1
permission 1
▁orden 1
since 1
▁ic 1
▁Brazil 1
▁bare 1
▁Nar 1
▁Jur 1
▁freedom 1
▁medical 1
ischof 1
▁сп 1
ież 1
▁bootstrap 1
▁… 1
▁facil 1
cord 1
ване 1
▁Allen 1
avid 1
ingham 1
zas 1
▁inspect 1
itten 1
osti 1
uh 1
cé 1
▁##### 1
cius 1
omy 1
▁Seine 1
bres 1
▁genus 1
Other 1
▁Golden 1
mul 1
▁Спољашње 1
▁gennaio 1
▁carefully 1
aal 1
▁analyt 1
neur 1
▁stretch 1
▁Occ 1
olas 1
▁firebase 1
▁expecting 1
basic 1
condition 1
prov 1
▁Wasser 1
▁concaten 1
▁evil 1
▁coefficients 1
West 1
iry 1
phas 1
▁Jam 1
fois 1
▁consid 1
▁mainten 1
nim 1
esser 1
esz 1
unta 1
uest 1
▁credentials 1
_; 1
Dim 1
преде 1
▁Bü 1
built 1
▁Academ 1
▁audi 1
▁två 1
inand 1
▁Theater 1
▁genre 1
ços 1
gresql 1
▁weap 1
▁Rab 1
▁’ 1
▁adult 1
▁dém 1
`` 1
▁stabil 1
▁corresponds 1
▁Eastern 1
unnel 1
Worker 1
▁coh 1
лка 1
▁Massachusetts 1
pio 1
▁ports 1
agg 1
▁Debug 1
▁breath 1
MIN 1
Variable 1
batch 1
ссе 1
▁preg 1
▁roles 1
paste 1
▁referenced 1
adrat 1
чё 1
binom 1
▁defining 1
▁Budapest 1
▁дви 1
▁taught 1
▁hole 1
▁quella 1
Msg 1
aska 1
scan 1
▁propose 1
▁Биография 1
{{\ 1
textt 1
▁Alb 1
▁Sydney 1
▁backup 1
▁credit 1
▁францу 1
stats 1
\": 1
▁Пере 1
▁accordingly 1
▁Len 1
zna 1
▁Regional 1
▁изда 1
▁jú 1
histor 1
▁entities 1
Star 1
оне 1
'][' 1
▁Nova 1
die 1
▁`' 1
▁obten 1
anst 1
▁Relig 1
▁trig 1
▁режи 1
▁Personal 1
▁tone 1
▁aid 1
Visual 1
Submit 1
▁moves 1
▁Bridge 1
▁Boy 1
▁accurate 1
osta 1
atto 1
▁defeated 1
▁datab 1
ginx 1
▁Liv 1
lywood 1
TW 1
rium 1
ipped 1
Fail 1
REQUEST 1
▁ignor 1
▁sitting 1
▁molto 1
▁endpoint 1
ución 1
▁collections 1
▁Ту 1
tembre 1
▁nécess 1
▁interact 1
▁otras 1
▁curr 1
▁tracks 1
▁família 1
▁numerical 1
legt 1
]/ 1
▁Mario 1
▁tort 1
bg 1
ssl 1
texttt 1
▁spark 1
дии 1
▁probable 1
%%%% 1
phia 1
],[ 1
▁boxes 1
▁academ 1
▁Slo 1
äude 1
▁witness 1
▁editing 1
лина 1
▁lookup 1
▁Buck 1
дня 1
▁jours 1
++){ 1
▁indices 1
▁flight 1
▁computation 1
Plugin 1
▁realize 1
isset 1
▁derivative 1
linewidth 1
bund 1
▁thor 1
▁.= 1
▁sí 1
▁Click 1
▁Sebast 1
>' 1
havior 1
lei 1
ulf 1
▁geometry 1
prev 1
empl 1
▁Lé 1
anson 1
▁Alice 1
prototype 1
READ 1
icular 1
▁бі 1
▁deutsche 1
▁Represent 1
sites 1
▁Mean 1
▁diss 1
▁Zur 1
▁през 1
PAR 1
▁'# 1
▁Dra 1
сон 1
▁steht 1
markt 1
▁ease 1
Drawing 1
=% 1
Stop 1
▁serving 1
▁także 1
▁DNS 1
▁literal 1
Die 1
▁вос 1
▁senior 1
acion 1
▁ubuntu 1
▁Frankfurt 1
▁Sunday 1
áb 1
▁journey 1
issa 1
berry 1
▁sep 1
▁ion 1
wert 1
ország 1
serve 1
▁Milano 1
▁века 1
рах 1
▁июля 1
▁manera 1
▁stations 1
▁adopted 1
▁anybody 1
VERSION 1
FE 1
dorf 1
..., 1
▁образова 1
Logger 1
фициаль 1
WRITE 1
▁ham 1
▁Future 1
oten 1
▁AG 1
▁trained 1
▁Nich 1
▁university 1
▁Olympics 1
▁doit 1
▁cultural 1
Conf 1
▁Conference 1
orno 1
▁MP 1
▁bou 1
cin 1
High 1
annte 1
▁displaying 1
▁chapter 1
▁Frauen 1
▁realized 1
▁attempted 1
▁preferred 1
Dat 1
▁trouve 1
▁intention 1
▁Notice 1
timestamp 1
*( 1
▁Ша 1
anas 1
cla 1
isz 1
tbl 1
Arr 1
▁inverse 1
▁terrible 1
▁occupied 1
JAX 1
<- 1
▁Philosoph 1
▁Corps 1
builder 1
▁begins 1
▁census 1
.’ 1
▁proven 1
metric 1
▁increases 1
wich 1
▁ABC 1
projects 1
▁Thor 1
▁confidence 1
▁ufficiale 1
elm 1
▁garden 1
▁robust 1
▁così 1
iedz 1
▁Islam 1
▁Address 1
▁divide 1
▁Eu 1
catal 1
detail 1
ependant 1
fg 1
▁bew 1
▁fis 1
▁BO 1
▁wsp 1
▁pipeline 1
hd 1
▁Session 1
länd 1
iveau 1
estr 1
▁particle 1
▁laravel 1
pic 1
▁nau 1
▁fins 1
▁Vil 1
▁fus 1
▁quasi 1
operation 1
▁aller 1
▁analy 1
▁Он 1
▁Mes 1
▁опера 1
▁handled 1
▁deprec 1
tto 1
▁Ek 1
▁stran 1
▁anglais 1
jure 1
▁Silver 1
▁closely 1
enkins 1
anos 1
sted 1
▁сентября 1
brand 1
ньо 1
▁présent 1
rok 1
mount 1
▁Anthony 1
▁Furthermore 1
inha 1
▁архи 1
▁разли 1
▁октября 1
▁pint 1
ný 1
pts 1
▁italien 1
▁реги 1
лез 1
дина 1
atherine 1
Internal 1
Question 1
▁settlement 1
▁Все 1
▁folders 1
дри 1
▁valor 1
▁Miller 1
▁Assert 1
▁patient 1
▁Nieder 1
▁EP 1
▁Agr 1
▁onde 1
▁scop 1
sequence 1
▁PL 1
▁seek 1
javase 1
▁Vector 1
▁ná 1
▁categoría 1
clone 1
NR 1
available 1
▁Besch 1
▁eclipse 1
wicklung 1
deploy 1
enie 1
▁") 1
äst 1
▁sync 1
CODE 1
▁Че 1
▁floating 1
/` 1
▁retired 1
deb 1
▁particul 1
▁collected 1
▁downloaded 1
nice 1
▁Buffer 1
▁Account 1
▁maggio 1
▁реда 1
▁sales 1
▁statunitense 1
▁Ki 1
▁Ferr 1
Lock 1
▁Isabel 1
clar 1
▁pov 1
atra 1
▁Frau 1
▁sorting 1
▁phrase 1
▁апреля 1
▁деятель 1
▁André 1
definition 1
writing 1
éré 1
щу 1
▁Ord 1
▁rum 1
▁Turk 1
▁Ivan 1
theless 1
▁ги 1
▁sake 1
▁Based 1
deck 1
orus 1
▁tutti 1
▁blan 1
▁Пу 1
Detail 1
▁Но 1
▁Sky 1
▁près 1
мой 1
coln 1
ческой 1
eti 1
▁arrow 1
▁Cha 1
chmark 1
œur 1
fab 1
куль 1
GridView 1
▁Background 1
sn 1
▁seguito 1
▁nic 1
cou 1
тів 1
▁bzw 1
addEventListener 1
sync 1
azzo 1
abstract 1
assets 1
▁Dru 1
зд 1
ordnet 1
▁bigger 1
▁initialized 1
каз 1
ogene 1
viously 1
▁guid 1
scheidung 1
▁Zent 1
▁frames 1
rieben 1
▁issued 1
▁dow 1
▁describes 1
ilst 1
▁criteria 1
▁gentleman 1
Basic 1
nez 1
Dev 1
Move 1
▁estaba 1
▁settembre 1
circle 1
▁fais 1
▁myst 1
▁archiv 1
dynamic 1
jà 1
itas 1
▁який 1
▁dor 1
▁Amazon 1
▁neces 1
▁Marcel 1
▁ella 1
рок 1
▁Pennsylvania 1
cular 1
Pack 1
itage 1
▁Burn 1
▁RO 1
▁они 1
~$ 1
TeX 1
assign 1
▁beat 1
idense 1
acent 1
Alert 1
▁strateg 1
▁månaden 1
LOC 1
▁catalog 1
printStackTrace 1
()). 1
usted 1
▁Framework 1
ECK 1
▁até 1
Framework 1
▁attacks 1
▁Bert 1
▁тран 1
:% 1
arsi 1
notation 1
▁logical 1
weet 1
▁visited 1
bru 1
▁surprise 1
^^ 1
inale 1
remote 1
'}, 1
Syntax 1
iane 1
onnen 1
▁breaking 1
parser 1
apk 1
▁Miguel 1
▁§ 1
▁acting 1
▁gebru 1
AtIndex 1
ються 1
▁offers 1
▁prac 1
▁grant 1
ternoon 1
▁acquired 1
▁Ny 1
▁comma 1
ník 1
▁Step 1
inners 1
▁SA 1
▁wat 1
days 1
▁rectangle 1
dar 1
▁trac 1
▁Indones 1
▁feedback 1
▁breaks 1
partition 1
icans 1
▁Notices 1
▁improved 1
phan 1
▁differential 1
scripts 1
▁XIII 1
▁Labor 1
▁precision 1
▁seed 1
bundle 1
idents 1
hre 1
▁Douglas 1
uld 1
▁secondary 1
▁brig 1
▁confirmed 1
▁claims 1
Role 1
▁Jewish 1
▁před 1
▁hotel 1
▁compte 1
▁recursive 1
](#) 1
▁rotate 1
▁chrome 1
inea 1
<unk15> 1
▁Environment 1
platz 1
▁Single 1
▁sevent 1
▁posting 1
▁dealing 1
parameters 1
граф 1
Authentication 1
touch 1
Az 1
▁gray 1
encing 1
boldmath 1
▁сайте 1
▁Za 1
anje 1
▁polar 1
▁ули 1
kil 1
▁hover 1
▁REST 1
▁Come 1
jb 1
▁Georgia 1
▁Estado 1
OutputStream 1
ћи 1
▁dump 1
▁Age 1
▁swo 1
mobile 1
occup 1
шего 1
▁constitution 1
good 1
aku 1
▁анг 1
ieck 1
▁Psych 1
▁roots 1
▁vest 1
▁годах 1
▁República 1
▁pian 1
igration 1
▁préc 1
▁generates 1
LY 1
(` 1
▁=~ 1
шения 1
▁Rah 1
▁connecting 1
ží 1
▁fő 1
▁appel 1
▁Railway 1
гли 1
▁développ 1
▁apo 1
fran 1
▁immediate 1
вого 1
Runner 1
äg 1
Something 1
▁généra 1
EventArgs 1
inction 1
gly 1
▁Due 1
▁prost 1
▁referring 1
▁jog 1
▁executable 1
▁Dream 1
acs 1
▁Cole 1
ampf 1
▁Bis 1
▁июня 1
lieder 1
тек 1
▁vb 1
▁mom 1
▁:( 1
▁dernier 1
'=> 1
▁этого 1
▁neue 1
▁Ча 1
▁weitere 1
▁alleg 1
▁reality 1
▁judge 1
▁Balt 1
▁thin 1
▁Ged 1
ieval 1
mx 1
ціональ 1
▁выпу 1
▁IX 1
▁blind 1
▁Motor 1
▁ша 1
▁approximation 1
dam 1
▁fog 1
кор 1
▁Writ 1
▁ling 1
▁писа 1
▁Mars 1
otti 1
Enum 1
▁Trib 1
▁merc 1
zung 1
vanced 1
cfg 1
нах 1
schen 1
"]. 1
bek 1
▁ster 1
jp 1
▁Rap 1
▁recording 1
▁peint 1
▁lets 1
änge 1
>"; 1
▁місце 1
▁caval 1
▁CSV 1
▁entstand 1
▁helper 1
endet 1
▁Gram 1
▁Diego 1
▁Bishop 1
TAG 1
▁ecc 1
▁Een 1
▁AV 1
City 1
▁Guide 1
hind 1
rical 1
▁Основ 1
Bus 1
▁zunächst 1
▁tick 1
▁Colonel 1
Thanks 1
▁ferm 1
▁granted 1
▁threshold 1
omorphic 1
▁Hun 1
enis 1
▁прав 1
▁які 1
PG 1
▁ws 1
▁technical 1
estro 1
klär 1
vars 1
ocrat 1
▁општи 1
onso 1
iba 1
▁Save 1
▁programa 1
▁въ 1
▁invån 1
>() 1
▁mejor 1
▁слова 1
▁replacement 1
▁impr 1
▁Francesco 1
▁Hotel 1
▁UPDATE 1
▁музы 1
ugs 1
vard 1
▁faz 1
inton 1
▁arts 1
▁Ky 1
▁Ils 1
▁sera 1
▁Volume 1
▁giugno 1
▁asym 1
▁Pir 1
▁NAS 1
▁Tam 1
ěl 1
Sequ 1
kmal 1
▁Eins 1
▁компа 1
obe 1
oor 1
▁heap 1
ctl 1
▁separately 1
reader 1
▁significantly 1
▁Lag 1
notes 1
▁sele 1
▁dedicated 1
▁Host 1
choice 1
wing 1
▁Titel 1
▁befindet 1
large 1
▁conten 1
JavaScript 1
▁deser 1
▁Gordon 1
спе 1
▁patri 1
▁Random 1
▁Returns 1
ым 1
рома 1
▁Studies 1
Sl 1
▁frü 1
TEXT 1
inate 1
▁Tol 1
▁everywhere 1
arta 1
▁orbit 1
▁Aires 1
▁Iss 1
▁też 1
▁diverse 1
▁numeric 1
maz 1
▁mise 1
▁battery 1
▁Akadem 1
нение 1
▁simultane 1
▁Dead 1
▁clust 1
▁otro 1
▁cerca 1
()`, 1
roz 1
ăt 1
▁MO 1
riften 1
important 1
▁jeho 1
▁findViewById 1
▁consequence 1
▁measured 1
ishes 1
▁sze 1
iendo 1
▁Wahl 1
strip 1
ARD 1
▁opacity 1
WORD 1
▁Ві 1
▁Location 1
rai 1
пен 1
▁rif 1
aussian 1
FileName 1
▁disco 1
ilen 1
▁vagy 1
licity 1
Border 1
▁Track 1
бом 1
fact 1
oka 1
▁gior 1
▁XVII 1
▁där 1
Site 1
ało 1
ská 1
▁pixels 1
vity 1
jQuery 1
▁sculpt 1
▁cargo 1
▁directive 1
▁wal 1
▁conna 1
▁Through 1
▁этом 1
Static 1
omsnitt 1
▁rund 1
▁claimed 1
зня 1
sha 1
▁rag 1
crement 1
▁fünf 1
▁rival 1
rin 1
slash 1
▁thirty 1
sleep 1
ологи 1
SM 1
gate 1
izations 1
vik 1
▁bless 1
▁Illinois 1
▁TE 1
uting 1
▁solving 1
GER 1
▁XIV 1
▁Indians 1
express 1
▁Heil 1
▁mujer 1
▁invånare 1
']); 1
▁aur 1
boost 1
GO 1
▁nin 1
tok 1
god 1
oter 1
)$$ 1
▁descend 1
рю 1
▁Language 1
▁diver 1
▁Assuming 1
▁frequent 1
чні 1
▁Biography 1
,[ 1
urm 1
▁walked 1
▁federal 1
▁Michigan 1
▁facts 1
▁Integr 1
LES 1
▁Alan 1
▁coup 1
Ber 1
▁particles 1
ће 1
Inflater 1
+( 1
Bound 1
▁Sü 1
Audio 1
citet 1
yect 1
▁nr 1
xe 1
▁Brun 1
▁_, 1
avor 1
▁discipl 1
alm 1
▁ноября 1
▁SSL 1
▁Kaiser 1
▁recher 1
ygon 1
▁regardless 1
▁configur 1
▁unnecess 1
▁Clark 1
PHP 1
▁FALSE 1
▁pad 1
$} 1
▁valu 1
▁disease 1
▁maior 1
▁hommes 1
▁Edition 1
slant 1
▁ending 1
▁settled 1
urus 1
hed 1
Pattern 1
▁година 1
▁Philadel 1
tikzpicture 1
▁coal 1
▁sede 1
▁satisfies 1
▁trim 1
▁bat 1
▁américain 1
▁luglio 1
▁поча 1
ffff 1
▁Target 1
generate 1
▁Zie 1
ția 1
▁gard 1
▁workers 1
▁Job 1
▁urban 1
ahlen 1
▁Building 1
▁neu 1
▁chron 1
▁Earl 1
gro 1
USE 1
▁XII 1
▁wealth 1
inae 1
▁Бра 1
▁libert 1
iros 1
:$ 1
lee 1
ieves 1
▁Justice 1
▁oil 1
▁Athlet 1
▁clo 1
Scale 1
▁lips 1
▁april 1
▁impression 1
▁perce 1
▁участи 1
vil 1
éch 1
▁equality 1
▁мет 1
▁annotation 1
ernal 1
▁Mach 1
▁intitul 1
problem 1
ющих 1
oplus 1
▁thousands 1
▁calculations 1
umps 1
▁triangle 1
phal 1
▁Dorf 1
▁dollars 1
▁denen 1
lès 1
olid 1
▁Results 1
▁Stadium 1
▁Desp 1
▁Eisen 1
imir 1
▁sotto 1
▁či 1
atable 1
orum 1
▁convergence 1
▁jeune 1
oking 1
▁живо 1
aining 1
pointer 1
culo 1
▁jsou 1
▁grab 1
akte 1
▁hoping 1
▁Mak 1
▁sag 1
origine 1
▁послед 1
▁Veg 1
▁theoret 1
▁Tru 1
nement 1
▁faces 1
Hor 1
Join 1
arel 1
▁около 1
However 1
▁catal 1
bourg 1
▁mysqli 1
acions 1
▁Initial 1
▁rain 1
iture 1
▁Sciences 1
▁Kreis 1
.__ 1
▁cinq 1
▁Auß 1
ithmet 1
itors 1
amazon 1
▁gap 1
▁ignored 1
adv 1
кої 1
▁часть 1
▁corpor 1
цер 1
▁crime 1
uous 1
▁налази 1
DataFrame 1
води 1
Ign 1
▁Lincoln 1
▁menos 1
▁Luft 1
▁Lind 1
▁Cook 1
▁materials 1
apped 1
ignore 1
▁откры 1
fried 1
▁gouvernement 1
▁fired 1
▁screenshot 1
сен 1
▁[( 1
▁организа 1
Graphics 1
▁проти 1
▁phen 1
craft 1
▁brain 1
▁Como 1
▁Everything 1
anes 1
IGN 1
▁nederbörd 1
▁Forest 1
zahl 1
▁Among 1
Qt 1
▁togg 1
▁variant 1
▁hill 1
писи 1
colon 1
▁dicembre 1
гор 1
▁Wind 1
ünstler 1
▁=\ 1
saved 1
▁nej 1
unte 1
utto 1
▁recens 1
▁sick 1
▁desen 1
UST 1
▁worst 1
▁Angel 1
odox 1
▁Province 1
▁Maz 1
▁agreement 1
▁Bass 1
▁segunda 1
onces 1
▁Linki 1
▁CL 1
▁já 1
itement 1
▁área 1
▁scalar 1
▁Рес 1
awt 1
sieme 1
▁juni 1
▁худож 1
ikus 1
▁lid 1
ppel 1
avi 1
▁balance 1
ipping 1
cussion 1
ческих 1
(". 1
Also 1
▁whis 1
HOME 1
▁brown 1
▁día 1
▁può 1
plotlib 1
▁Jahrhunderts 1
DK 1
▁anchor 1
...] 1
▁Austria 1
▁marca 1
▁gez 1
iously 1
▁lazy 1
xa 1
▁Channel 1
▁neuen 1
das 1
▁searched 1
▁staat 1
▁Так 1
▁Josef 1
▁Sher 1
pois 1
▁enem 1
▁accessing 1
▁неко 1
▁furono 1
▁pseudo 1
?> 1
▁estadoun 1
▁Види 1
▁motiv 1
▁recall 1
isson 1
ób 1
)-- 1
▁Erz 1
▁савез 1
Direct 1
соб 1
▁sho 1
völker 1
Ap 1
gens 1
ништво 1
▁Amsterdam 1
usk 1
пло 1
▁simulation 1
▁BC 1
▁Woj 1
autom 1
Alex 1
▁economic 1
гом 1
ikai 1
▁altre 1
▁'- 1
▁Weg 1
NotFound 1
йской 1
▁converting 1
phabet 1
atrice 1
bourne 1
alom 1
▁comparing 1
▁Zo 1
▁fla 1
вая 1
▁entra 1
▁charset 1
developers 1
ística 1
}> 1
▁Jazz 1
▁Howard 1
шта 1
▁clone 1
door 1
▁Pin 1
*** 1
▁silent 1
ecycle 1
isce 1
▁mud 1
▁Display 1
▁lip 1
▁использова 1
▁characteristic 1
▁sb 1
firebase 1
▁Bew 1
Calendar 1
▁uso 1
èse 1
▁Rat 1
▁esper 1
▁throwing 1
▁rodz 1
▁yards 1
▁grass 1
▁marker 1
▁Kos 1
Theta 1
▁organis 1
kernel 1
▁personas 1
keep 1
▁exclaimed 1
oslav 1
▁Entertain 1
нер 1
▁inwon 1
▁Rand 1
reduce 1
fac 1
expression 1
yj 1
▁differenti 1
aglia 1
▁templates 1
▁mű 1
▁prv 1
▁mois 1
▁gewann 1
▁була 1
bibli 1
demo 1
▁Anderson 1
▁ред 1
▁porque 1
▁Pologne 1
▁trip 1
▁exemple 1
▁Internacional 1
▁као 1
Insert 1
general 1
SESSION 1
berga 1
hält 1
unas 1
мира 1
▁yields 1
mapsto 1
spot 1
▁+\ 1
лла 1
▁precisely 1
▁член 1
shadow 1
Are 1
unal 1
▁dispar 1
▁título 1
nest 1
▁Low 1
▁prot 1
▁Costa 1
named 1
▁gained 1
lesia 1
▁administration 1
Import 1
branch 1
▁sympath 1
voj 1
▁EC 1
▁municipio 1
▁animated 1
▁directories 1
▁roof 1
ząd 1
imet 1
proto 1
bla 1
:] 1
have 1
atem 1
▁ns 1
▁sector 1
three 1
owane 1
wers 1
ових 1
rence 1
▁extr 1
igten 1
▁occident 1
ță 1
▁eat 1
▁hydro 1
ubernetes 1
[@ 1
▁Moon 1
▁Sho 1
▁elsewhere 1
üller 1
Upload 1
ланд 1
▁För 1
wissenschaft 1
KS 1
▁physics 1
tz 1
▁серед 1
▁Arbeit 1
▁мест 1
▁Gebiet 1
▁insect 1
Ah 1
izado 1
▁temple 1
▁annual 1
stad 1
▁habitat 1
▁AB 1
wort 1
▁repos 1
▁Neu 1
▁$(". 1
Vorlage 1
▁reprezent 1
estanden 1
Intern 1
.` 1
▁failing 1
▁Material 1
▁effectively 1
телем 1
▁гла 1
▁nahm 1
▁differently 1
extension 1
▁Verm 1
enabled 1
configure 1
nio 1
ciones 1
▁Beach 1
сона 1
▁copying 1
▁україн 1
▁призна 1
zh 1
Desktop 1
▁sost 1
▁subsequently 1
▁Lehr 1
▁ó 1
lär 1
odor 1
phon 1
nc 1
iterator 1
▁эти 1
▁europé 1
▁Toronto 1
ódigo 1
▁posto 1
ffe 1
▁crew 1
▁Schwar 1
Sa 1
square 1
▁beside 1
▁Мі 1
▁ath 1
▁advent 1
cji 1
written 1
▁russ 1
rost 1
HI 1
▁dice 1
cca 1
▁dép 1
ply 1
bigg 1
ział 1
ütt 1
▁одно 1
JECT 1
ському 1
nos 1
mock 1
Launch 1
same 1
▁jobs 1
▁widely 1
▁defines 1
▁Pse 1
▁neighbour 1
ющие 1
▁closer 1
▁располо 1
▁clubs 1
fly 1
шим 1
▁suffered 1
▁nar 1
▁lavor 1
Extension 1
itionally 1
▁grace 1
▁Campeonato 1
▁Christmas 1
middle 1
othek 1
elements 1
▁sondern 1
▁tarde 1
▁permanent 1
▁conclude 1
Seg 1
▁акаде 1
}", 1
▁февраля 1
řed 1
▁IL 1
jud 1
▁USS 1
▁Nature 1
ifference 1
Serializer 1
▁twelve 1
tid 1
мия 1
ческого 1
▁calendar 1
concat 1
▁intersection 1
▁PA 1
azure 1
▁située 1
▁kinds 1
▁ausge 1
▁rural 1
Theme 1
▁tale 1
noindent 1
going 1
rx 1
agi 1
wrapper 1
▁Coast 1
mbH 1
▁перед 1
spre 1
▁}\ 1
▁LI 1
znam 1
itled 1
Sample 1
uliar 1
*\ 1
▁resistance 1
stock 1
ked 1
▁HE 1
▁possession 1
▁Ring 1
▁magyar 1
outs 1
▁Secretary 1
nde 1
▁Wald 1
-( 1
▁ISO 1
▁afternoon 1
ionen 1
▁stops 1
▁constants 1
guard 1
bow 1
▁ers 1
▁Firebase 1
▁Clear 1
▁Holy 1
Win 1
▁titles 1
▁трав 1
▁contrib 1
häng 1
▁photograph 1
▁Distribution 1
ifts 1
▁aunque 1
comb 1
ADD 1
▁publication 1
▁служ 1
▁кня 1
▁ayant 1
▁restore 1
▁belief 1
▁vég 1
▁extensions 1
▁decom 1
вший 1
WT 1
▁parti 1
▁gioc 1
▁мира 1
▁issu 1
pipe 1
▁props 1
▁willing 1
▁nest 1
aso 1
pot 1
▁handles 1
▁фо 1
▁moder 1
▁ebenfalls 1
▁fighting 1
umbn 1
▁transparent 1
▁Krist 1
▁homes 1
▁voyage 1
Failed 1
▁Bird 1
▁Heart 1
Counter 1
▁Scottish 1
ática 1
▁arbeit 1
^{-\ 1
▁Sor 1
▁engaged 1
▁aside 1
▁Fou 1
▁wiel 1
▁reconst 1
ousin 1
▁hosted 1
▁classe 1
▁contest 1
..." 1
мом 1
▁bean 1
gem 1
▁consultato 1
▁bio 1
▁subjects 1
boBox 1
▁Schrift 1
▁dinner 1
ăr 1
▁równ 1
▁%% 1
bage 1
▁veröff 1
▁detected 1
ienn 1
rose 1
▁Ton 1
Complete 1
▁proto 1
ichts 1
STAT 1
Checked 1
▁inten 1
▁smile 1
▁strip 1
neut 1
<unk16> 1
four 1
▁todas 1
Controls 1
▁thorough 1
rup 1
▁држави 1
ită 1
Protocol 1
Ка 1
▁expanded 1
extra 1
oport 1
▁Станов 1
leases 1
▁notion 1
▁guest 1
▁Islands 1
icked 1
▁Dave 1
▁reflection 1
liv 1
ální 1
▁revealed 1
▁sog 1
▁Tax 1
▁periodo 1
▁Weltkrie 1
catalina 1
qué 1
▁Father 1
▁Bir 1
expect 1
▁regression 1
iné 1
▁dabei 1
perm 1
мене 1
▁Abd 1
▁CF 1
arks 1
resolve 1
wedge 1
▁initialization 1
▁Véase 1
▁приня 1
stmt 1
▁income 1
MY 1
▁odkazy 1
▁Siehe 1
▁bodies 1
▁soc 1
Random 1
▁senza 1
ablo 1
▁regarded 1
onCreate 1
▁Magazine 1
▁Raf 1
▁Buenos 1
ил 1
))); 1
capt 1
redirect 1
▁petit 1
▁farm 1
▁rôle 1
▁статьи 1
     1
subfigure 1
èces 1
ziel 1
▁окон 1
EE 1
mee 1
▁perten 1
▁représent 1
▁LA 1
?' 1
▁тру 1
▁rational 1
osof 1
▁kne 1
▁artists 1
Flow 1
▁Аль 1
izard 1
▁numero 1
actic 1
▁destruct 1
▁Пра 1
onsieur 1
qt 1
abestanden 1
ność 1
Connect 1
▁oracle 1
▁Stockholm 1
sizeof 1
▁gemäß 1
ACT 1
▁expert 1
utions 1
▁hacia 1
▁logger 1
▁fool 1
rypto 1
ær 1
▁cidade 1
▁составе 1
oker 1
▁Transfer 1
▁denied 1
Track 1
▁radi 1
zec 1
▁Historic 1
▁Einwohner 1
кою 1
▁хра 1
▁Category 1
▁Disney 1
▁swap 1
Begin 1
▁mientras 1
▁dance 1
▁tête 1
▁droit 1
erta 1
▁birds 1
▁convin 1
parator 1
дра 1
▁ES 1
▁Ressources 1
EGIN 1
ücke 1
▁Cruz 1
abling 1
▁"@ 1
▁metres 1
▁Beg 1
▁Gründ 1
▁Boh 1
▁mile 1
▁Technology 1
"+ 1
acco 1
▁ss 1
▁Fed 1
▁Hend 1
usch 1
itä 1
folk 1
▁absor 1
antal 1
odge 1
▁WHEN 1
▁Externí 1
▁Regiment 1
▁evaluation 1
▁Tai 1
▁vocals 1
▁experimental 1
embed 1
▁Minn 1
▁вме 1
prec 1
every 1
▁hoof 1
▁Fernando 1
▁Bibliographie 1
▁nag 1
amerikanischer 1
▁marks 1
▁UTC 1
▁uncertain 1
дия 1
olia 1
▁cup 1
▁fille 1
▁dok 1
useppe 1
esterd 1
▁Brand 1
▁Third 1
PP 1
nodes 1
▁Pad 1
▁loved 1
swing 1
▁surprised 1
ardi 1
▁GR 1
]" 1
▁equally 1
ihe 1
care 1
писок 1
lijk 1
rinn 1
▁\[\ 1
▁sons 1
▁tät 1
icamente 1
▁listing 1
iellement 1
▁nyelven 1
▁ds 1
▁agricult 1
▁Hermann 1
▁besides 1
progress 1
▁peculiar 1
focus 1
cn 1
-$ 1
ственный 1
ourg 1
▁wyn 1
▁conducted 1
▁Становништво 1
connected 1
▁bott 1
▁смер 1
▁Poz 1
unct 1
conda 1
▁савезној 1
▁havet 1
ligt 1
orted 1
▁entering 1
multip 1
▁Temple 1
▁Plant 1
typeof 1
▁Vlad 1
▁qued 1
▁reste 1
▁май 1
▁Very 1
ambiguation 1
▁challeng 1
▁respective 1
▁тор 1
Ctrl 1
▁absence 1
aru 1
вое 1
▁först 1
▁sq 1
▁Emperor 1
▁Ign 1
▁това 1
:` 1
adoop 1
▁Madame 1
▁gruppo 1
stud 1
▁externas 1
▁Александр 1
▁dign 1
▁живе 1
Amount 1
▁correlate 1
▁Fant 1
▁rails 1
fp 1
министратив 1
▁bought 1
▁filters 1
▁ancora 1
▁partner 1
▁quand 1
symbol 1
ulating 1
▁zd 1
awn 1
▁Grant 1
because 1
rable 1
\} 1
ísticas 1
▁уче 1
▁période 1
▁ske 1
▁Anyway 1
▁indexes 1
▁directions 1
▁RAM 1
chrome 1
▁apost 1
▁warnings 1
▁Airport 1
VI 1
abile 1
▁lord 1
provider 1
▁Ji 1
ostream 1
▁gemeente 1
tableView 1
Extra 1
cursor 1
eground 1
▁Moz 1
▁rib 1
▁morph 1
loads 1
elsk 1
▁MAX 1
▁Santiago 1
▁Him 1
codes 1
▁lanz 1
▁counts 1
rinningsområ 1
щё 1
▁spé 1
▁pierws 1
▁Sver 1
▁acknow 1
Boolean 1
▁фамили 1
▁Senate 1
шов 1
agers 1
▁Nueva 1
bil 1
kiem 1
▁Mey 1
wij 1
▁GmbH 1
validation 1
▁ensuite 1
inking 1
▁campion 1
▁financial 1
izon 1
Headers 1
▁deprecated 1
▁fonction 1
REG 1
▁volumes 1
▁Chi 1
▁encountered 1
lak 1
рая 1
▁continues 1
▁~[ 1
uerte 1
▁\; 1
▁Dok 1
▁weights 1
▁rh 1
▁Napole 1
▁naturally 1
sku 1
pas 1
▁gegründ 1
etr 1
▁Ku 1
icted 1
▁fabric 1
▁ASC 1
▁Entertainment 1
▁energ 1
клад 1
omon 1
theme 1
▁харак 1
▁draft 1
▁channels 1
▁desert 1
▁través 1
▁Lock 1
▁siendo 1
фек 1
même 1
▁packet 1
▁Mountain 1
▁Fahr 1
braio 1
пере 1
▁genannt 1
▁deployment 1
Pal 1
ног 1
стру 1
Prim 1
für 1
▁dangerous 1
▁szám 1
reck 1
▁popup 1
icky 1
inar 1
cowo 1
нцикло 1
ítás 1
▁plugins 1
▁driven 1
лев 1
▁"( 1
tta 1
▁Ú 1
▁eb 1
▁''; 1
▁knock 1
▁основа 1
▁maison 1
гля 1
▁Honor 1
tail 1
ritz 1
▁guys 1
▁combinations 1
ondere 1
▁Ald 1
▁fiddle 1
дав 1
urd 1
▁projection 1
▁También 1
verb 1
▁terre 1
rugu 1
▁september 1
▁<! 1
cost 1
▁nut 1
{% 1
▁ubic 1
amarin 1
тии 1
▁patron 1
▁amely 1
▁esto 1
▁listop 1
fal 1
▁Prop 1
▁Ont 1
▁Made 1
TEST 1
▁Nem 1
▁Nations 1
▁ву 1
including 1
▁spectrum 1
▁Lan 1
▁Ever 1
Paul 1
tm 1
Append 1
Relative 1
disabled 1
returns 1
▁flowers 1
iku 1
▁|\ 1
▁Jordan 1
▁Small 1
▁cic 1
▁sexual 1
autre 1
вал 1
▁rip 1
oust 1
▁Philadelphia 1
▁uk 1
▁Mongo 1
xmlns 1
▁shop 1
▁debugger 1
▁zaj 1
▁Billy 1
▁niem 1
olis 1
▁россий 1
agner 1
▁maven 1
▁Gustav 1
Aus 1
compare 1
▁jeu 1
uder 1
ishment 1
▁дивизи 1
▁Finland 1
нут 1
zés 1
▁Ligações 1
▁quello 1
annotation 1
▁threw 1
▁Proof 1
▁Area 1
ashi 1
▁FO 1
jamin 1
дент 1
▁unus 1
friend 1
."); 1
▁trakten 1
documentclass 1
anka 1
▁arrive 1
▁donne 1
oly 1
▁Rein 1
▁facebook 1
icina 1
slice 1
▁nagy 1
▁hebben 1
▁IC 1
▁Bag 1
▁circul 1
áct 1
mitt 1
▁grey 1
▁cav 1
▁особи 1
▁symmetric 1
▁Sic 1
▁medium 1
▁UTF 1
▁Dopo 1
ích 1
bare 1
dzie 1
▁heaven 1
▁campe 1
esterday 1
▁Wissenschaft 1
поль 1
did 1
aler 1
▁citizens 1
▁Margaret 1
▁sought 1
charts 1
CLC 1
olly 1
ysz 1
wald 1
▁fen 1
▁Six 1
▁Urs 1
▁орган 1
▁Trad 1
cue 1
schutz 1
▁precise 1
▁Window 1
тие 1
лові 1
itori 1
disambiguation 1
▁хи 1
▁Natural 1
dan 1
▁concrete 1
ција 1
▁spel 1
▁Failed 1
ście 1
▁buf 1
uca 1
icional 1
▁ottobre 1
▁фі 1
▁submitted 1
lave 1
▁Plot 1
▁colleg 1
adem 1
▁chaque 1
▁neighborhood 1
▁calciatore 1
Loop 1
▁Gast 1
▁когда 1
▁industrial 1
▁fatal 1
▁Cert 1
lation 1
▁Одна 1
▁jamais 1
▁accum 1
Identity 1
▁Medal 1
Metadata 1
▁людя 1
bridge 1
Good 1
▁чтобы 1
▁composer 1
▁bread 1
▁closure 1
▁largely 1
FB 1
▁область 1
▁automatic 1
aría 1
▁sufficiently 1
▁italiana 1
▁каче 1
▁Jó 1
history 1
▁HD 1
▁siguiente 1
nell 1
▁Gree 1
▁Ti 1
▁transferred 1
équipe 1
▁Philippe 1
▁encourag 1
▁Vietnam 1
▁graphs 1
▁symmetry 1
fred 1
week 1
▁bronze 1
rys 1
▁namely 1
onders 1
lemagne 1
XY 1
Convert 1
}]( 1
Region 1
pecies 1
▁texture 1
▁chr 1
него 1
▁somebody 1
aqu 1
eras 1
▁Ново 1
▁dez 1
aniu 1
okrat 1
▁covers 1
▁signals 1
ђе 1
▁Heb 1
▁Anti 1
IVE 1
▁ress 1
LETE 1
yna 1
пла 1
ждения 1
▁champ 1
▁villages 1
Zone 1
▁iPhone 1
▁souvent 1
ські 1
▁febbraio 1
ército 1
▁XI 1
okat 1
▁membres 1
junit 1
▁Draw 1
▁прово 1
audio 1
endl 1
▁Nad 1
▁magnitude 1
Sur 1
icing 1
▁unw 1
▁отри 1
▁Bey 1
▁Vik 1
▁política 1
porter 1
▁Barbara 1
ált 1
bib 1
▁accompan 1
VP 1
▁encoded 1
▁Sometimes 1
bird 1
▁Ult 1
▁tun 1
getText 1
▁arrival 1
scriptstyle 1
{` 1
▁perspective 1
LINE 1
Formatter 1
▁bom 1
вра 1
DEBUG 1
Bounds 1
▁Title 1
ló 1
Dan 1
▁gene 1
▁Bit 1
▁reproduce 1
▁graphics 1
▁сем 1
рё 1
▁реки 1
usalem 1
рож 1
▁DES 1
▁Software 1
urance 1
ithmetic 1
eness 1
ichi 1
Converter 1
▁github 1
erdings 1
glise 1
ách 1
▁buried 1
▁vision 1
Miss 1
▁sees 1
▁personnes 1
▁Intel 1
elia 1
▁člán 1
▁chi 1
▁klas 1
auté 1
▁stark 1
cze 1
▁drivers 1
vn 1
!, 1
▁годы 1
Hi 1
▁explains 1
articles 1
▁zug 1
Prom 1
>= 1
▁Beat 1
▁Sax 1
vertical 1
кто 1
▁plants 1
▁Références 1
▁ogni 1
▁curs 1
▁SK 1
они 1
▁destac 1
<unk17> 1
▁Sure 1
▁partido 1
▁Folge 1
▁Moore 1
▁wz 1
скус 1
ltre 1
ondo 1
▁pose 1
imos 1
бой 1
ципа 1
jus 1
..... 1
▁época 1
▁quanto 1
▁Support 1
geschichte 1
SERVER 1
▁Georges 1
enum 1
▁herm 1
▁nebo 1
▁Chr 1
character 1
▁*** 1
▁Forsch 1
iami 1
▁¿ 1
cych 1
▁fifth 1
sent 1
▁anderem 1
▁proportion 1
▁prest 1
▁Girl 1
▁drama 1
wand 1
▁Mail 1
▁Lux 1
▁který 1
▁Gesellschaft 1
▁Hinweis 1
nisse 1
▁mondo 1
Eq 1
▁perí 1
▁eastern 1
▁UEFA 1
uale 1
▁convex 1
▁поль 1
▁Hey 1
zenie 1
initely 1
▁Zusammen 1
SSL 1
ocal 1
▁canal 1
voy 1
▁Кри 1
▁között 1
▁cars 1
▁versión 1
Environment 1
Her 1
▁señ 1
▁spatial 1
ymi 1
Fire 1
▁veget 1
▁Wie 1
▁znaj 1
▁damage 1
▁endl 1
gif 1
▁quali 1
▁которых 1
ellan 1
▁mens 1
▁plug 1
▁abund 1
FIG 1
▁sf 1
▁confl 1
▁населения 1
▁principles 1
▁Gabriel 1
ibe 1
▁{% 1
▁població 1
ніципа 1
▁extreme 1
▁asse 1
▁vu 1
Mock 1
▁spielte 1
▁Aer 1
▁datos 1
endes 1
▁Gel 1
▁Gor 1
Christ 1
chos 1
Processor 1
▁instruct 1
▁picked 1
nahme 1
fahr 1
▁indicated 1
▁%. 1
▁ts 1
▁notable 1
▁qualified 1
▁Ал 1
Black 1
▁council 1
▁overhead 1
aci 1
année 1
▁initWith 1
bió 1
▁introduction 1
▁companion 1
▁expon 1
▁kör 1
oby 1
burn 1
gnu 1
virtual 1
▁intellect 1
▁держа 1
'+ 1
бле 1
▁strictly 1
▁recognize 1
hour 1
▁Wrest 1
ennen 1
$). 1
fff 1
▁Centro 1
▁Pitt 1
▁dział 1
▁cela 1
▁francese 1
рами 1
special 1
▁Dup 1
toire 1
каль 1
COUNT 1
▁Brook 1
▁руково 1
publique 1
▁seconda 1
▁compt 1
▁bland 1
Before 1
▁Pack 1
alty 1
öder 1
▁intervals 1
▁Datenbank 1
Movie 1
▁transm 1
▁tap 1
▁поч 1
fon 1
iai 1
▁fib 1
▁wyd 1
▁hung 1
▁alive 1
Clear 1
▁pushed 1
▁tuple 1
achen 1
гово 1
▁revers 1
▁augment 1
▁challenge 1
lost 1
▁deuxième 1
structor 1
▁mehrerer 1
atural 1
Split 1
стем 1
шла 1
)\\ 1
▁Dog 1
▁developers 1
▁nod 1
▁сторо 1
▁NaN 1
▁priest 1
▁exha 1
UND 1
pair 1
alone 1
▁moon 1
▁#!/ 1
▁guns 1
rola 1
чита 1
▁Encyclopedia 1
atis 1
▁'" 1
zych 1
▁superfic 1
▁эк 1
едера 1
feed 1
LAY 1
Fi 1
unks 1
isecond 1
▁'@ 1
▁Adding 1
рое 1
▁tang 1
цо 1
hung 1
bis 1
ského 1
▁advert 1
▁занима 1
uzz 1
ágina 1
▁Tel 1
sig 1
▁Ez 1
▁guarantee 1
▁teaching 1
oty 1
termin 1
▁distributions 1
FLA 1
▁Giuseppe 1
querySelector 1
▁/\ 1
▁Squad 1
gz 1
delay 1
▁surrounding 1
▁manus 1
▁Hou 1
², 1
▁cultiv 1
▁troubles 1
▁raison 1
expand 1
▁cov 1
nungen 1
)){ 1
▁geen 1
▁außer 1
▁Лі 1
ři 1
▁situations 1
▁telep 1
▁Jed 1
▁travail 1
lias 1
bullet 1
▁selecting 1
avier 1
▁essential 1
(/ 1
yyyy 1
ště 1
ulty 1
▁kra 1
▁tabs 1
▁experienced 1
azi 1
▁Directory 1
▁cron 1
▁spend 1
▁RA 1
▁selenium 1
▁Thé 1
Elements 1
cii 1
▁plat 1
▁archive 1
▁assistance 1
▁neck 1
▁Avenue 1
▁wheel 1
▁hade 1
Common 1
▁Dialog 1
▁forg 1
▁surely 1
▁hockey 1
któ 1
▁tk 1
▁▁▁▁▁▁▁▁▁▁▁▁▁▁▁ 1
▁Bruce 1
▁enorm 1
,’ 1
▁Christopher 1
jev 1
▁quad 1
▁AJAX 1
▁relief 1
▁modes 1
sklär 1
▁Vid 1
▁Serial 1
▁tokens 1
▁Poland 1
\] 1
▁vide 1
rooms 1
omas 1
▁Bureau 1
cx 1
ностью 1
▁signs 1
шение 1
lossen 1
▁Queens 1
▁membre 1
▁mez 1
▁Bool 1
▁Naj 1
▁Memory 1
▁Khan 1
▁là 1
▁Hud 1
▁dismiss 1
ighth 1
▁fs 1
prevent 1
▁меда 1
▁Police 1
▁ско 1
finite 1
▁ami 1
▁Much 1
owania 1
ORY 1
iors 1
▁Premio 1
▁textbox 1
dm 1
▁afin 1
▁Donald 1
▁Priv 1
▁decid 1
▁Maurice 1
agan 1
▁Britannica 1
▁oft 1
▁consecutive 1
"?> 1
овий 1
student 1
▁peque 1
▁dieses 1
▁retour 1
étr 1
▁сез 1
▁kre 1
▁votes 1
ruption 1
izada 1
▁Wiel 1
▁Gray 1
▁Leop 1
teilung 1
([' 1
▁whites 1
frica 1
animation 1
curl 1
lings 1
="$ 1
loyd 1
textsc 1
ору 1
▁села 1
esian 1
▁Mission 1
▁неза 1
▁ultimately 1
бов 1
olen 1
скому 1
nete 1
▁Dit 1
▁costru 1
dependent 1
▁Resource 1
▁hosts 1
▁rear 1
Duration 1
ників 1
Ма 1
▁planning 1
▁prediction 1
▁Lyn 1
▁kir 1
▁Legisl 1
мат 1
▁Soccer 1
▁survey 1
▁estadounidense 1
orgen 1
jourd 1
▁aprile 1
▁ids 1
ське 1
▁employee 1
▁Schauspieler 1
ръ 1
▁multimedia 1
▁свою 1
▁wine 1
▁EU 1
ică 1
▁Rhein 1
▁Palmar 1
oteca 1
▁prepare 1
▁Tot 1
▁Null 1
▁kin 1
inals 1
▁Newton 1
▁tbl 1
▁Sold 1
▁verf 1
aturing 1
▁laptop 1
▁Совет 1
secret 1
▁Olympic 1
▁footballer 1
▁Rudolf 1
▁conhe 1
zysk 1
▁evaluated 1
») 1
shop 1
repository 1
▁zach 1
▁losing 1
etter 1
▁Wirtschaft 1
так 1
▁unnecessary 1
▁Phot 1
anska 1
▁Native 1
CCE 1
▁fifty 1
▁erw 1
rh 1
issent 1
}{( 1
▁lanç 1
▁Xcode 1
город 1
cir 1
▁película 1
▁Oscar 1
▁shore 1
▁supplied 1
examples 1
Mess 1
VICE 1
▁exclude 1
▁hen 1
▁губер 1
▁Fragment 1
▁Bitte 1
▁Besides 1
▁hes 1
▁ihrem 1
▁Serge 1
▁artific 1
="${ 1
лово 1
uteur 1
taire 1
пас 1
▁easiest 1
▁famiglia 1
Normal 1
▁dalle 1
▁nations 1
rp 1
thead 1
▁області 1
▁Democratic 1
▁челове 1
мож 1
▁гер 1
▁smallest 1
▁Publishing 1
▁Ts 1
▁laughed 1
lle 1
▁Amt 1
▁IIS 1
FORM 1
Mag 1
дон 1
▁storia 1
▁organized 1
ční 1
▁ox 1
lingen 1
▁luego 1
cció 1
▁rely 1
▁tussen 1
erten 1
▁honour 1
▁Claude 1
▁Korea 1
▁Metropol 1
Super 1
rien 1
érature 1
attro 1
▁біль 1
▁Herbert 1
▁auteurs 1
▁darauf 1
▁mental 1
▁rang 1
▁són 1
▁Soph 1
)", 1
Descriptor 1
prepare 1
▁Landkreis 1
HC 1
cross 1
лиза 1
▁Login 1
onen 1
Feature 1
▁museum 1
vek 1
▁Nelson 1
▁rejo 1
▁команди 1
▁summar 1
▁следу 1
ämp 1
▁Gas 1
вом 1
VALUE 1
inge 1
period 1
lassen 1
ával 1
▁altogether 1
umph 1
istro 1
ąż 1
▁Keep 1
▁Marco 1
▁étant 1
▁Dre 1
geometry 1
▁Kas 1
messages 1
Cook 1
▁Side 1
▁коми 1
стри 1
▁excess 1
▁Biografia 1
XXXX 1
▁Nie 1
vendor 1
xsd 1
Mill 1
processing 1
▁Missouri 1
▁permett 1
▁apar 1
▁crowd 1
fert 1
▁Dou 1
rí 1
▁CC 1
▁payment 1
▁Hollywood 1
▁Virtual 1
▁spoken 1
▁tram 1
▁Community 1
▁administrative 1
▁воло 1
gior 1
visor 1
▁Украи 1
stage 1
▁Format 1
▁convenient 1
На 1
▁median 1
▁вра 1
▁Према 1
enig 1
▁Opera 1
rés 1
▁fmt 1
▁efficiency 1
male 1
Master 1
Series 1
▁syd 1
generic 1
interval 1
▁efect 1
▁inwoners 1
лимпи 1
irement 1
Err 1
öh 1
▁lying 1
▁Settings 1
!= 1
ematic 1
argv 1
▁Basic 1
▁consideration 1
▁habe 1
-% 1
▁mountains 1
▁peak 1
▁fallen 1
eded 1
logic 1
▁matched 1
▁typing 1
)}, 1
▁fancy 1
▁elegant 1
ال 1
▁участ 1
▁Sarah 1
▁Verd 1
▁tego 1
rules 1
▁mounted 1
▁ім 1
еру 1
stoff 1
fahren 1
distance 1
▁License 1
▁LEFT 1
▁wp 1
/{ 1
▁amazon 1
>& 1
▁első 1
quarters 1
▁shock 1
nick 1
▁Archite 1
▁Square 1
▁rates 1
iore 1
▁Nat 1
▁Charlot 1
reichen 1
▁variation 1
osis 1
life 1
slide 1
abi 1
uki 1
mysq 1
▁primitive 1
▁universitaire 1
LENG 1
ależ 1
ebook 1
syn 1
▁Gegen 1
▁Kü 1
▁але 1
▁Lub 1
concurrent 1
izzato 1
▁stub 1
▁ie 1
▁'./ 1
cod 1
▁internacional 1
▁Glas 1
▁mare 1
▁Neb 1
▁GB 1
kwargs 1
▁aument 1
WID 1
▁род 1
punkt 1
▁Grad 1
SN 1
AMP 1
▁Born 1
▁Guerre 1
готов 1
▁medio 1
Med 1
supp 1
actual 1
dropdown 1
▁oktober 1
▁ř 1
▁circular 1
▁skin 1
▁emphas 1
▁голов 1
▁pue 1
▁informations 1
▁Wolfgang 1
▁useless 1
ит 1
▁Joan 1
▁бор 1
▁Glad 1
▁Know 1
ként 1
speed 1
▁Kevin 1
unft 1
▁arqu 1
▁Casa 1
(... 1
▁rapidly 1
▁proble 1
▁Википеди 1
žen 1
▁Neben 1
▁Meter 1
Children 1
cem 1
igos 1
aju 1
▁Retrie 1
▁Hell 1
▁gig 1
▁controvers 1
▁zoom 1
▁cens 1
▁alcuni 1
▁Header 1
Meta 1
Required 1
▁институ 1
▁skup 1
▁ingles 1
égl 1
bij 1
▁tér 1
▁compag 1
▁committed 1
▁processed 1
Lower 1
▁Foreign 1
▁seq 1
sheets 1
▁Fem 1
hoz 1
inks 1
▁kall 1
variant 1
▁libro 1
▁clicks 1
▁gobierno 1
iegel 1
мого 1
geme 1
▁tower 1
▁parish 1
▁TCP 1
▁ls 1
▁nginx 1
NaN 1
▁Dir 1
▁Begriffe 1
arie 1
ímp 1
icios 1
▁sharing 1
▁cinéma 1
bec 1
RED 1
▁Kra 1
abol 1
▁flux 1
▁expensive 1
▁суще 1
▁`_ 1
ocz 1
лист 1
▁acquaint 1
▁wise 1
▁pouvoir 1
▁devant 1
▁momentum 1
immer 1
▁Coupe 1
indexOf 1
▁doesnt 1
▁зав 1
▁license 1
▁â 1
CSS 1
▁rice 1
Team 1
▁ano 1
lit 1
▁merged 1
▁Cell 1
лл 1
boy 1
asts 1
▁sell 1
▁große 1
▁virtuel 1
Cancel 1
▁sj 1
gment 1
.< 1
чай 1
ië 1
akh 1
izers 1
prit 1
▁Tib 1
▁elaborate 1
▁fé 1
▁меди 1
LENGTH 1
▁primarily 1
▁scores 1
▁carrying 1
▁lake 1
compose 1
▁Township 1
unge 1
▁alberga 1
anych 1
quelle 1
▁Ark 1
▁pris 1
▁voll 1
шли 1
Validation 1
▁ceux 1
▁populate 1
<unk18> 1
▁femmes 1
ANG 1
▁Despite 1
вые 1
iske 1
zug 1
нача 1
▁hatten 1
INSERT 1
Employee 1
▁moments 1
▁última 1
▁holder 1
blank 1
Collections 1
athers 1
▁grade 1
▁affairs 1
.$$ 1
▁delta 1
▁Jugend 1
▁español 1
▁OUT 1
▁mathematical 1
▁mongo 1
▁Фе 1
uling 1
▁revolution 1
▁coin 1
▁subclass 1
"=> 1
äche 1
▁pyg 1
щая 1
illery 1
▁comenz 1
depth 1
▁cél 1
▁resize 1
▁Same 1
▁strik 1
▁tir 1
▁scarc 1
▁Member 1
subscribe 1
óż 1
útbol 1
except 1
▁driving 1
kie 1
zony 1
èmes 1
David 1
issant 1
▁ты 1
▁élect 1
▁rename 1
▁Running 1
▁interfaces 1
//////////////// 1
▁Walker 1
▁société 1
▁asks 1
brid 1
▁jewe 1
▁seines 1
▁agents 1
▁MY 1
▁Lawrence 1
dess 1
iesen 1
▁людях 1
прави 1
▁ancest 1
▁welche 1
raum 1
▁orb 1
scal 1
▁Lear 1
▁wear 1
▁slave 1
▁renamed 1
čen 1
maste 1
angles 1
▁América 1
▁ti 1
▁demsel 1
▁beneath 1
binary 1
▁edición 1
▁kilomet 1
uits 1
▁cuatro 1
▁entrance 1
ondissement 1
▁bag 1
▁Armen 1
ijo 1
▁Lors 1
▁demselben 1
êm 1
▁discrete 1
▁prominent 1
▁Jay 1
decor 1
DL 1
▁dí 1
Struct 1
▁Production 1
they 1
arius 1
schnitt 1
▁Cou 1
▁lex 1
youtube 1
▁работа 1
station 1
sep 1
▁mirror 1
▁hits 1
▁Beck 1
atically 1
▁Laz 1
▁winner 1
DEX 1
▁INT 1
}^{- 1
▁wegen 1
mad 1
Angle 1
zing 1
▁Bayern 1
sal 1
äger 1
▁busy 1
▁stör 1
▁folk 1
▁prix 1
▁allocated 1
▁pt 1
affen 1
cluster 1
▁complement 1
árs 1
▁Amerika 1
рій 1
▁valley 1
▁rooms 1
▁moi 1
.", 1
;;;; 1
▁lowest 1
nog 1
▁landet 1
▁programme 1
chio 1
▁Während 1
ández 1
▁долж 1
▁ouv 1
omány 1
▁Википедии 1
▁só 1
▁elektr 1
Desc 1
▁Beaut 1
нар 1
▁може 1
Pierre 1
esota 1
▁operated 1
▁forte 1
рис 1
▁opposition 1
alia 1
▁Syl 1
getName 1
вели 1
fik 1
▁comprom 1
▁TextView 1
Spring 1
metadata 1
engu 1
/, 1
▁carri 1
istol 1
▁diagonal 1
lista 1
izen 1
▁rende 1
gcc 1
beck 1
lius 1
iral 1
Resolver 1
▁percentage 1
▁attra 1
strings 1
wiąz 1
ods 1
волю 1
ęż 1
▁newspaper 1
imiter 1
ABC 1
▁Manchester 1
[{ 1
Agent 1
▁Wor 1
▁Kath 1
▁пові 1
▁entonces 1
▁niveau 1
atted 1
learn 1
atiques 1
▁уби 1
▁quindi 1
binding 1
▁imported 1
▁Horn 1
emberg 1
complex 1
▁neural 1
information 1
▁recognition 1
ingt 1
▁inhabitants 1
vue 1
▁Bevölker 1
▁curves 1
▁leb 1
дій 1
▁sow 1
▁sentiment 1
PH 1
rache 1
▁-( 1
▁estable 1
▁Ferdinand 1
▁écrit 1
▁primeiro 1
▁tex 1
▁intermediate 1
verage 1
ibus 1
▁serves 1
ivas 1
▁bru 1
▁lum 1
attice 1
чный 1
▁Dres 1
▁videos 1
duration 1
▁abit 1
▁egg 1
ographical 1
alph 1
STATE 1
▁пара 1
reading 1
▁vehicle 1
▁fortune 1
ultats 1
▁Storia 1
midt 1
łącz 1
▁Memorial 1
▁vas 1
▁зан 1
▁utility 1
▁obsc 1
▁relacion 1
▁runat 1
Release 1
take 1
▁Oliver 1
▁Sid 1
ulos 1
▁Garc 1
▁розта 1
▁Sak 1
Py 1
führt 1
▁trabal 1
*{ 1
▁zes 1
▁szere 1
▁varios 1
▁otra 1
▁eval 1
▁situé 1
▁wounded 1
▁Vincent 1
▁викори 1
▁encode 1
Modal 1
▁forb 1
▁dynamics 1
▁depos 1
arde 1
▁streets 1
▁Komm 1
=$( 1
▁повер 1
▁dois 1
▁vitt 1
▁automatisch 1
▁reload 1
▁Verwalt 1
bero 1
▁hub 1
▁mos 1
▁tutto 1
▁Frederick 1
łow 1
antages 1
aque 1
paper 1
▁einige 1
`), 1
dj 1
▁Ple 1
▁%, 1
▁Bitmap 1
▁friendly 1
▁truly 1
▁stroke 1
roph 1
▁engl 1
▁coff 1
▁dust 1
▁Jahres 1
ppi 1
▁wys 1
factor 1
schluss 1
▁деревня 1
▁Past 1
▁дома 1
COM 1
▁pueden 1
▁gift 1
▁Gla 1
▁triggered 1
ély 1
ülés 1
▁Oliv 1
▁verso 1
▁lle 1
▁Gli 1
▁Ltd 1
oa 1
▁territorio 1
ordre 1
▁deck 1
dra 1
aszt 1
▁concerning 1
▁Additionally 1
▁které 1
▁grund 1
▁Gest 1
▁misunder 1
pret 1
──── 1
▁reputation 1
zia 1
▁успе 1
▁escaped 1
▁Prag 1
perform 1
▁austral 1
▁Vater 1
час 1
▁races 1
▁Byte 1
Mask 1
▁Territ 1
стю 1
▁Voci 1
▁Fichier 1
▁Населення 1
▁Unterscheidung 1
teenth 1
▁pilot 1
▁ji 1
▁двух 1
▁orientation 1
indre 1
▁Dort 1
ças 1
пли 1
▁reaction 1
▁consisting 1
▁ferro 1
тисти 1
yard 1
▁сві 1
▁interpretation 1
ią 1
rah 1
▁fand 1
Public 1
▁universe 1
▁retir 1
▁conscious 1
arqu 1
▁waste 1
▁Bib 1
yclerView 1
▁listening 1
gleich 1
niejs 1
▁correlation 1
▁receiver 1
▁уда 1
▁courage 1
uchs 1
fass 1
▁chunk 1
▁Anfang 1
▁großen 1
continue 1
▁Warszawa 1
hé 1
iy 1
ivement 1
▁α 1
▁exposed 1
▁zahl 1
▁sacr 1
▁Looks 1
▁eager 1
enten 1
Cursor 1
/_ 1
ixa 1
рела 1
знача 1
▁фамилией 1
▁argent 1
▁Anders 1
œuvre 1
▁Isa 1
мента 1
▁advers 1
riction 1
GP 1
▁після 1
▁preserve 1
▁Garden 1
Rate 1
après 1
▁readable 1
indu 1
▁skill 1
▁helping 1
ographique 1
cling 1
ologist 1
▁Filter 1
▁finger 1
▁Vall 1
▁Polish 1
lg 1
▁Familien 1
▁waters 1
▁pseud 1
aza 1
_) 1
ARY 1
▁среди 1
▁Must 1
▁Bod 1
anon 1
▁lado 1
▁tight 1
imen 1
appen 1
frames 1
ingers 1
▁COVID 1
▁зі 1
▁све 1
▁ць 1
▁Left 1
]]; 1
чь 1
фика 1
▁сло 1
▁пі 1
▁existe 1
▁Atlantic 1
▁maintained 1
▁irre 1
▁année 1
▁commented 1
веро 1
berta 1
▁Lad 1
▁Upon 1
▁pause 1
mill 1
opter 1
UK 1
рес 1
нциклопеди 1
▁alongside 1
▁robot 1
▁fert 1
▁moy 1
▁ade 1
Mapper 1
)-> 1
igua 1
étique 1
тка 1
alias 1
▁ори 1
▁Magn 1
▁gehörte 1
imb 1
)}{\ 1
▁Wikipédia 1
▁urs 1
▁ende 1
leb 1
▁GC 1
Hol 1
ancing 1
Union 1
▁tenía 1
TT 1
▁estate 1
há 1
▁полі 1
ultan 1
▁Hockey 1
ulse 1
▁choices 1
scher 1
▁[], 1
▁potentially 1
▁Übers 1
▁admit 1
Comment 1
стя 1
▁Vien 1
▁ці 1
▁permut 1
cgi 1
▁crít 1
Console 1
ctic 1
▁okres 1
awk 1
football 1
ouest 1
CTYPE 1
ologique 1
▁constit 1
▁interests 1
▁Progress 1
▁Menu 1
▁také 1
▁Asian 1
▁защи 1
▁younger 1
▁wished 1
▁Sort 1
▁audience 1
amba 1
▁gehört 1
▁Kansas 1
yaume 1
▁Professional 1
âce 1
▁fatto 1
tod 1
▁datasets 1
▁fare 1
▁waves 1
~/ 1
▁measurement 1
▁wol 1
indust 1
▁struggling 1
▁pulled 1
▁caratter 1
▁Externe 1
▁действи 1
cnt 1
liches 1
▁Possible 1
▁faced 1
▁hypothesis 1
▁kilom 1
▁när 1
boolean 1
PY 1
ampa 1
▁kiss 1
▁astero 1
▁negli 1
aments 1
▁Stu 1
ató 1
▁Constitution 1
▁interpol 1
▁Unable 1
▁pis 1
▁parc 1
"]) 1
pler 1
▁autory 1
▁algunos 1
ywna 1
})) 1
▁falls 1
▁équip 1
▁emit 1
▁profil 1
gets 1
фо 1
▁Military 1
▁nombreux 1
oct 1
Replace 1
▁seasons 1
▁château 1
▁typeof 1
polit 1
▁rand 1
▁quar 1
▁erstmals 1
сини 1
▁payload 1
По 1
кін 1
repo 1
▁Pav 1
Score 1
erves 1
▁sollte 1
▁між 1
ébec 1
▁clip 1
▁Nice 1
▁neben 1
▁assass 1
itories 1
▁unity 1
▁ен 1
▁Institut 1
▁internationale 1
▁наук 1
▁comand 1
▁kleine 1
▁adjacent 1
▁delivered 1
▁ше 1
зем 1
▁cot 1
visual 1
вает 1
▁Census 1
\_ 1
▁territory 1
чил 1
чные 1
flutter 1
DidLoad 1
Documents 1
▁dob 1
Bre 1
animate 1
▁biz 1
▁bata 1
▁SU 1
eso 1
▁priority 1
ván 1
iras 1
▁charged 1
▁Micro 1
atoire 1
чер 1
abad 1
uru 1
▁vš 1
dire 1
▁Twitter 1
▁мето 1
).. 1
▁Цент 1
▁entwick 1
▁Mind 1
▁функ 1
Future 1
lst 1
łoż 1
fli 1
tensor 1
▁topology 1
▁arte 1
ERT 1
▁variance 1
Images 1
▁(@ 1
ArrayList 1
OC 1
▁Демо 1
aucoup 1
▁denotes 1
imon 1
њи 1
▁Przyp 1
▁Zag 1
▁дире 1
▁Similarly 1
бро 1
▁militaire 1
▁тому 1
▁Johnny 1
▁Мексику 1
ћа 1
Supp 1
▁junior 1
oltre 1
▁Моск 1
▁admitted 1
▁religios 1
зяй 1
его 1
▁tears 1
ingo 1
odu 1
iveness 1
▁logo 1
▁último 1
▁aliment 1
▁UITableView 1
)! 1
▁nj 1
lette 1
▁resident 1
▁termine 1
▁уже 1
▁Сте 1
office 1
▁carte 1
▁livre 1
▁Москов 1
▁elections 1
зиден 1
Trigger 1
▁Benjamin 1
addClass 1
ског 1
▁Observable 1
Cla 1
gemein 1
▁consent 1
ври 1
▁unfold 1
▁governor 1
нал 1
▁toda 1
Remote 1
arias 1
▁instal 1
fixed 1
▁decay 1
▁дерев 1
xyz 1
▁DATE 1
imar 1
ntil 1
▁startup 1
alion 1
▁kolej 1
cios 1
▁ranges 1
▁stupid 1
▁implementations 1
▁rm 1
ének 1
▁gcc 1
▁scène 1
Navigation 1
▁  1
▁кан 1
▁towns 1
Username 1
▁фе 1
▁leaders 1
oit 1
wär 1
▁dummy 1
▁assistant 1
{$\ 1
бір 1
▁roy 1
▁Layout 1
▁Jung 1
Lines 1
▁Holland 1
пор 1
▁Гри 1
▁Bened 1
▁Под 1
xls 1
▁Gol 1
▁Aleks 1
▁ejemplo 1
▁sezon 1
arding 1
footnote 1
▁Congrès 1
refer 1
ската 1
Iterator 1
▁ourselves 1
▁Mic 1
▁código 1
▁площа 1
▁\$ 1
▁Charlie 1
Nodes 1
▁puzz 1
▁Identifier 1
▁flutter 1
▁prü 1
▁ort 1
▁Cort 1
asticsearch 1
▁Свя 1
▁Bull 1
udem 1
▁apparent 1
:-- 1
▁Хар 1
▁Lap 1
▁comport 1
matically 1
▁curios 1
▁может 1
▁Bh 1
apping 1
▁basketball 1
zetek 1
▁runt 1
▁Milan 1
fection 1
ría 1
▁Kin 1
▁slower 1
both 1
▁Instituto 1
▁Historical 1
▁również 1
matches 1
yci 1
▁espèce 1
▁Schweizer 1
NT 1
SF 1
acia 1
forge 1
Points 1
numbers 1
▁falling 1
▁inheritance 1
▁Erst 1
▁customers 1
▁actu 1
▁migration 1
\' 1
Plan 1
Mr 1
othy 1
▁upgrad 1
бира 1
▁Offic 1
▁Wait 1
▁toler 1
ardon 1
▁slide 1
)_ 1
▁став 1
▁nuclear 1
▁Bil 1
owner 1
▁Harris 1
Information 1
▁pó 1
▁включа 1
▁nuovo 1
▁Cav 1
▁Descri 1
▁ак 1
ództ 1
▁reactjs 1
▁Adams 1
▁Alternatively 1
струк 1
)`, 1
substring 1
▁massive 1
▁heavily 1
▁сезо 1
▁Ana 1
▁vale 1
Pad 1
▁Either 1
▁rs 1
anche 1
▁uploaded 1
▁(/ 1
▁спор 1
▁reduction 1
▁Tokyo 1
gren 1
▁migli 1
▁iterator 1
stav 1
▁supporting 1
▁österreich 1
▁NSLog 1
istiques 1
rimin 1
MODE 1
}}}\ 1
▁explos 1
оте 1
▁(„ 1
Sal 1
▁simplest 1
▁già 1
▁тан 1
▁cyl 1
bir 1
▁measurements 1
Created 1
erek 1
lookup 1
wirtschaft 1
▁Воло 1
timer 1
derr 1
▁стала 1
▁scenes 1
▁persu 1
liest 1
▁schedule 1
tal 1
лено 1
▁painting 1
▁improvement 1
software 1
▁governo 1
▁Hir 1
Execution 1
▁Okay 1
Prop 1
loster 1
ніципалі 1
▁peuvent 1
olu 1
▁Фа 1
rollo 1
▁коло 1
▁carrière 1
▁toggle 1
▁($\ 1
▁aggregate 1
▁Бі 1
textarea 1
Ok 1
itto 1
▁stim 1
▁recursion 1
▁Federation 1
)_{ 1
ategor 1
▁distribu 1
Cloud 1
▁madre 1
▁iv 1
▁Lieutenant 1
▁substant 1
▁leaf 1
▁Kontrola 1
VA 1
▁tomb 1
эн 1
atoes 1
▁godine 1
▁#> 1
Cert 1
▁empresa 1
Props 1
▁planned 1
▁randomly 1
jähr 1
elem 1
▁Operation 1
*` 1
protocol 1
())); 1
wel 1
▁praw 1
▁сим 1
▁wob 1
▁hace 1
▁nearest 1
disable 1
▁Commun 1
▁revel 1
Free 1
▁brackets 1
IOException 1
▁alto 1
▁marry 1
▁auc 1
),\ 1
▁typo 1
edad 1
ará 1
icator 1
tatywna 1
▁buff 1
orders 1
▁asynchronous 1
▁econ 1
▁feu 1
▁Iron 1
▁rising 1
Radius 1
clk 1
▁zweiten 1
`' 1
▁uniqu 1
▁FM 1
▁Bran 1
▁flu 1
▁sensitive 1
urre 1
▁Iter 1
▁Sein 1
▁diferentes 1
▁него 1
chia 1
▁Anleitung 1
aturday 1
▁shorter 1
▁translated 1
▁Rés 1
▁rode 1
drag 1
▁lange 1
Bi 1
üb 1
leur 1
▁ordering 1
alous 1
▁Кор 1
archar 1
destroy 1
ervation 1
]], 1
AccessorImpl 1
▁autorytatywna 1
Sequence 1
▁proyect 1
▁bran 1
▁(+ 1
▁Kab 1
▁zem 1
▁Calcul 1
▁seul 1
▁Niger 1
▁chiam 1
throw 1
▁Planet 1
bildung 1
▁zones 1
transition 1
лений 1
▁mapped 1
onaut 1
Pair 1
ilian 1
▁Morgan 1
▁unto 1
jou 1
▁hid 1
▁Meta 1
▁elles 1
Lou 1
rama 1
geordnet 1
▁scarcely 1
▁mint 1
Focus 1
▁Alter 1
▁dio 1
▁ampl 1
ièrement 1
▁исследова 1
LED 1
algorithm 1
▁сайті 1
▁"") 1
History 1
pk 1
▁Whit 1
▁систем 1
▁Kirchen 1
rà 1
APP 1
▁<% 1
antine 1
▁Disk 1
conv 1
welt 1
▁Fut 1
▁Nom 1
ordo 1
ellij 1
▁receives 1
cow 1
ytu 1
▁obras 1
▁purchase 1
▁earned 1
▁accessed 1
axi 1
▁Mans 1
ivan 1
▁tuvo 1
▁Trace 1
rimonio 1
▁desenvol 1
érique 1
▁resulted 1
▁computing 1
▁inspired 1
▁Prize 1
*" 1
Comput 1
▁extensive 1
èg 1
▁Portály 1
▁castle 1
▁*. 1
▁photos 1
▁voet 1
ONG 1
▁Alle 1
▁threaten 1
stüt 1
▁albums 1
▁dense 1
flat 1
continu 1
Subject 1
▁readonly 1
Opt 1
писко 1
▁Aber 1
▁Position 1
▁Today 1
▁mini 1
▁Bef 1
listen 1
ственного 1
SUB 1
ossa 1
▁Pope 1
▁Jimmy 1
▁Дру 1
ungsseite 1
▁tren 1
optim 1
itsch 1
▁samt 1
▁испол 1
&= 1
▁Przypisy 1
▁продол 1
Cr 1
ermann 1
▁матери 1
▁Hugo 1
▁Deze 1
TRUE 1
▁defeat 1
▁watched 1
▁Gent 1
AUT 1
orous 1
▁опреде 1
orientation 1
▁distinguished 1
▁mesmo 1
▁sli 1
мена 1
mittel 1
gericht 1
eton 1
->{ 1
▁wont 1
▁weg 1
▁classific 1
ilus 1
▁MD 1
tasks 1
▁chim 1
await 1
▁gang 1
▁wię 1
through 1
▁Russell 1
▁guessing 1
▁акт 1
блі 1
categories 1
сут 1
▁Fen 1
▁муж 1
▁newer 1
▁Async 1
▁terme 1
>/ 1
пара 1
▁Trust 1
▁Opt 1
▁dah 1
▁wonderful 1
adratkil 1
▁Гра 1
mapping 1
▁discovery 1
▁BE 1
Enable 1
▁Friend 1
сня 1
▁controlled 1
чної 1
▁contributions 1
jší 1
▁Lev 1
▁francés 1
▁mic 1
zik 1
▁alem 1
cancel 1
!' 1
▁grat 1
▁Begriffsklär 1
Camera 1
ificación 1
ród 1
▁Arnold 1
▁bezeichneter 1
▁fought 1
▁deput 1
▁Drop 1
tax 1
dg 1
▁Hop 1
GN 1
▁Kirch 1
▁Бар 1
Invoke 1
▁erhalten 1
▁veel 1
▁wordpress 1
▁INNER 1
transaction 1
▁déjà 1
Fact 1
▁надмор 1
▁angularjs 1
▁át 1
▁alap 1
▁Price 1
▁effet 1
▁sphere 1
ClassLoader 1
▁rugby 1
▁kingdom 1
▁Mut 1
▁кино 1
▁reward 1
cit 1
▁presente 1
Sto 1
Character 1
logs 1
▁centrale 1
▁mouv 1
▁okay 1
▁aplic 1
More 1
ények 1
▁Köln 1
nett 1
▁истории 1
▁describing 1
▁soldier 1
▁Need 1
Light 1
▁"\< 1
▁hav 1
ermo 1
▁inferior 1
lea 1
▁gg 1
▁конце 1
fragment 1
sb 1
Country 1
▁vě 1
▁Beng 1
▁Это 1
▁водо 1
мар 1
STRING 1
▁új 1
multiple 1
statement 1
▁involves 1
▁tecn 1
Student 1
gré 1
▁lean 1
▁bringing 1
▁Medical 1
▁програм 1
▁Vog 1
▁жов 1
▁Spirit 1
nth 1
▁standards 1
▁Profile 1
▁ez 1
▁территории 1
▁stem 1
uil 1
▁Og 1
Btn 1
nal 1
▁nearby 1
▁producing 1
criv 1
▁assumptions 1
▁Spark 1
▁Lot 1
itudes 1
afka 1
five 1
atio 1
▁distinguish 1
rock 1
église 1
▁rappres 1
>\< 1
лій 1
▁мини 1
▁intitulé 1
}}(\ 1
▁Rout 1
▁Border 1
▁overrid 1
HOST 1
ritten 1
say 1
▁Чи 1
ichtung 1
▁straightforward 1
obb 1
▁Terra 1
▁[: 1
Ben 1
▁composite 1
)+\ 1
▁crown 1
direction 1
▁несколько 1
▁avail 1
▁purchased 1
hook 1
eties 1
▁fase 1
▁Rum 1
▁genom 1
▁dét 1
ową 1
mpeg 1
▁Ін 1
desktop 1
▁injection 1
agle 1
▁Edd 1
_{( 1
▁Hem 1
utos 1
proj 1
▁superficie 1
Plot 1
▁Docker 1
ätz 1
kreich 1
▁unclear 1
▁Unity 1
▁streams 1
вид 1
▁simplified 1
Fill 1
▁sant 1
▁Kommun 1
▁duc 1
▁две 1
▁obs 1
žit 1
▁Janeiro 1
бя 1
▁presso 1
▁Ministry 1
▁burst 1
▁reaching 1
liter 1
▁responses 1
▁Eug 1
▁sod 1
▁Cord 1
▁Perm 1
parts 1
цима 1
variables 1
▁forgotten 1
Fern 1
ostęp 1
vl 1
▁См 1
kim 1
ając 1
наль 1
гле 1
helper 1
dup 1
euw 1
fra 1
ellite 1
anya 1
▁reign 1
gesamt 1
седа 1
▁Ryan 1
▁formatted 1
▁Borg 1
walk 1
▁ал 1
agnostics 1
▁Cape 1
▁Franco 1
▁fug 1
:) 1
юз 1
Fetch 1
▁roughly 1
▁Mis 1
uetooth 1
▁Venezuela 1
▁astronom 1
")` 1
ombres 1
▁которой 1
óp 1
owed 1
HR 1
▁Camer 1
кие 1
parison 1
▁Bij 1
templates 1
environment 1
ização 1
▁ér 1
▁plenty 1
▁TypeError 1
▁forty 1
коном 1
▁Sed 1
▁thats 1
▁gravity 1
▁spiritual 1
▁duplicates 1
▁encryption 1
▁reven 1
getInstance 1
ällor 1
disk 1
▁thro 1
▁Nak 1
▁poł 1
▁heraus 1
invalid 1
sBy 1
Boot 1
▁bucket 1
▁Parse 1
hex 1
Conne 1
▁Computer 1
zyk 1
▁induced 1
▁Bruno 1
▁addressed 1
mania 1
▁inclus 1
ounced 1
scriptsize 1
▁Epis 1
▁vocal 1
▁Jonathan 1
ум 1
staden 1
▁Children 1
пей 1
Italia 1
reibung 1
▁nost 1
▁ещё 1
▁Werke 1
▁actress 1
▁Minnesota 1
rike 1
▁tek 1
▁primeira 1
▁frat 1
▁Configuration 1
▁bid 1
trigger 1
Contents 1
▁constantly 1
!!! 1
▁dread 1
▁hundreds 1
istische 1
▁cardinal 1
TABLE 1
▁estos 1
assoc 1
gray 1
▁Schloss 1
▁sche 1
cong 1
▁koji 1
ètes 1
▁Era 1
omi 1
▁SR 1
▁wrapped 1
▁trunc 1
▁ah 1
egos 1
oki 1
mouth 1
logging 1
▁fasc 1
▁Sample 1
▁conte 1
▁villa 1
comments 1
▁batal 1
▁García 1
▁Norte 1
▁wechsel 1
▁Museo 1
▁enfants 1
▁whisper 1
nake 1
▁jednak 1
lês 1
enders 1
▁äl 1
▁VB 1
▁cookies 1
zeti 1
atum 1
▁dedu 1
▁arranged 1
laz 1
▁cuenta 1
yml 1
▁flav 1
MR 1
emet 1
біль 1
cmp 1
ituto 1
zett 1
▁envi 1
▁kot 1
$: 1
upper 1
▁Alberto 1
kb 1
Anal 1
ört 1
▁[- 1
▁führte 1
iah 1
▁Tun 1
▁искус 1
uwe 1
ispecies 1
Pub 1
Sync 1
▁Colombia 1
akers 1
▁Imperial 1
oving 1
▁intelligence 1
▁equipment 1
ein 1
dagger 1
▁Edge 1
▁Республи 1
adratkilometer 1
▁Anto 1
▁charges 1
▁Ocean 1
▁simplify 1
▁miesz 1
running 1
▁Lac 1
genommen 1
▁representative 1
=. 1
▁Pred 1
▁spite 1
ciale 1
▁nave 1
▁extens 1
▁neutral 1
▁которая 1
.</ 1
▁CS 1
uky 1
▁whilst 1
▁lingu 1
extract 1
zeichnung 1
▁Feld 1
▁valuable 1
urable 1
▁Jen 1
▁struggle 1
▁committee 1
▁Wohn 1
▁sqlite 1
▁Temp 1
▁COUNT 1
consin 1
міні 1
usage 1
▁quest 1
дян 1
eared 1
▁Schne 1
▁dod 1
▁recht 1
▁kao 1
Capt 1
labels 1
▁ellos 1
▁industri 1
▁Colorado 1
▁contrary 1
▁Dum 1
Bel 1
▁Vent 1
▁authorities 1
YES 1
ensed 1
umbnail 1
izzazione 1
kou 1
rica 1
▁sect 1
tests 1
▁Klein 1
▁legs 1
▁Pietro 1
fu 1
thy 1
▁bast 1
▁tedes 1
ettes 1
▁repet 1
acre 1
retto 1
▁remainder 1
▁Geg 1
▁Гор 1
▁Rechts 1
▁filtering 1
ouss 1
▁deployed 1
▁prüfe 1
▁bitmap 1
▁sovi 1
▁<%= 1
▁entferne 1
kill 1
tabs 1
Expr 1
кому 1
▁Republican 1
▁Size 1
▁poll 1
▁rien 1
▁клуб 1
énd 1
▁Bio 1
▁perl 1
▁Andreas 1
вин 1
▁distant 1
▁Finn 1
▁Mitch 1
▁%{ 1
▁charm 1
▁Mul 1
perate 1
▁sciences 1
▁monot 1
▁debido 1
rizona 1
iec 1
▁alarm 1
▁promoted 1
▁letzten 1
atin 1
▁conclus 1
herr 1
▁éch 1
edish 1
gor 1
▁stycz 1
▁impress 1
ruits 1
ierungs 1
▁parsed 1
▁río 1
▁Pakistan 1
igner 1
▁watching 1
▁databases 1
eding 1
▁Specific 1
▁generale 1
lax 1
▁Looking 1
▁bond 1
▁vista 1
▁ec 1
▁grud 1
▁deleting 1
tac 1
▁jazz 1
jm 1
▁pół 1
Language 1
delegate 1
▁registry 1
▁Shared 1
строй 1
Music 1
▁vessel 1
.@ 1
▁Wür 1
▁fed 1
▁eredet 1
▁Gö 1
upt 1
▁pleasant 1
▁tableView 1
▁counting 1
▁Kriegs 1
▁получил 1
▁], 1
виа 1
▁až 1
ToList 1
▁Advent 1
▁sketch 1
pn 1
▁sier 1
▁находится 1
iop 1
▁ly 1
▁Schl 1
Contract 1
associ 1
▁Pear 1
▁whe 1
▁Delete 1
▁elem 1
ätte 1
▁česk 1
▁MC 1
▁shout 1
akespe 1
▁defaults 1
penas 1
òria 1
▁hierarchy 1
ipt 1
▁Elis 1
likely 1
Rot 1
▁cow 1
▁strike 1
▁березня 1
▁ensemble 1
▁Pseud 1
Virtual 1
▁її 1
ROOT 1
сия 1
▁соб 1
▁invert 1
▁switching 1
htaccess 1
▁награ 1
▁Norman 1
▁inglês 1
![ 1
ousel 1
DOCTYPE 1
▁suppress 1
▁accompanied 1
▁Bé 1
implies 1
nut 1
▁Syntax 1
inho 1
▁tam 1
▁focused 1
avano 1
▁Baden 1
had 1
▁({ 1
Ty 1
▁рос 1
▁чолові 1
oge 1
jsp 1
Blue 1
▁suas 1
apers 1
Short 1
Renderer 1
▁sendo 1
▁Cec 1
▁`__ 1
▁Municipal 1
dotnet 1
▁bev 1
▁DA 1
MenuItem 1
▁amp 1
▁uri 1
▁fier 1
слен 1
),( 1
cules 1
illas 1
LOCK 1
▁derive 1
uben 1
▁GT 1
▁Mack 1
▁scholar 1
)}} 1
зм 1
>:: 1
шёл 1
▁principales 1
▁цар 1
▁tied 1
▁alta 1
▁Cit 1
lined 1
major 1
▁punk 1
▁cinco 1
ický 1
▁raggi 1
typen 1
тельство 1
▁conference 1
▁сіль 1
▁heut 1
iš 1
ета 1
velope 1
hbox 1
nown 1
▁zar 1
ktiv 1
ieß 1
▁стре 1
▁EventArgs 1
▁Ira 1
▁VBA 1
▁Santo 1
▁Fach 1
▁FF 1
▁Raymond 1
мец 1
implementation 1
▁brothers 1
▁côté 1
▁controllers 1
▁Cle 1
▁cable 1
▁confer 1
▁{- 1
▁czł 1
▁Filip 1
atorio 1
▁wicht 1
▁beaucoup 1
▁Lit 1
▁sessions 1
▁Success 1
▁routing 1
niu 1
▁Vice 1
▁krit 1
updated 1
▁Invalid 1
▁Mannschaft 1
▁aos 1
▁tudi 1
▁després 1
qua 1
Contains 1
Company 1
▁persona 1
adapter 1
сни 1
▁voj 1
▁escri 1
agt 1
▁ство 1
▁distrito 1
apan 1
▁aspects 1
▁zal 1
)^{\ 1
▁système 1
▁ана 1
iums 1
▁premiers 1
▁поэ 1
▁mère 1
▁Gun 1
aping 1
▁Rain 1
▁igual 1
▁processor 1
')` 1
bling 1
▁mism 1
bráz 1
▁closest 1
▁Reading 1
▁попу 1
cono 1
▁kult 1
▁!! 1
▁Expression 1
▁induction 1
ahren 1
▁cp 1
▁violence 1
ientí 1
cente 1
▁Dob 1
jack 1
song 1
bucket 1
▁deport 1
кими 1
lm 1
▁innoc 1
Changes 1
▁prohib 1
angol 1
iseconds 1
▁пор 1
▁hip 1
▁pů 1
endorf 1
▁scheduled 1
▁Flug 1
acyj 1
▁Films 1
athedral 1
Power 1
ardin 1
kap 1
icken 1
resize 1
eus 1
rr 1
лян 1
▁Hav 1
▁ora 1
FROM 1
лося 1
▁terug 1
▁Width 1
▁accepts 1
бен 1
▁mich 1
▁Czech 1
▁Bedeut 1
▁вид 1
ôme 1
▁Loop 1
spect 1
ük 1
eston 1
▁slot 1
▁została 1
▁Charlotte 1
▁составляет 1
▁Promise 1
▁epo 1
▁diction 1
▁Franklin 1
▁Riv 1
руг 1
cida 1
▁Explorer 1
cookie 1
▁formerly 1
▁municipality 1
▁Stefan 1
lists 1
COMP 1
Len 1
▁Staat 1
▁NBA 1
dens 1
▁oscill 1
!. 1
▁PO 1
ône 1
eses 1
▁националь 1
voor 1
▁копи 1
▁пози 1
ulu 1
Constraint 1
▁своей 1
▁algebraic 1
чня 1
Dict 1
▁appearing 1
▁prav 1
▁Universal 1
Browser 1
▁Singap 1
ennessee 1
]_ 1
▁Sof 1
▁Cad 1
ounce 1
▁costs 1
]{\ 1
../../ 1
ській 1
ühl 1
iety 1
пр 1
▁interpreted 1
ajn 1
colog 1
YS 1
mans 1
▁metrics 1
▁registr 1
istance 1
▁Поль 1
▁anonymous 1
▁institutions 1
▁zdob 1
prüng 1
▁арти 1
▁estat 1
acci 1
▁academic 1
▁chiesa 1
▁Gian 1
contrib 1
umed 1
▁Gir 1
▁baseball 1
numeric 1
Generator 1
GM 1
▁tiny 1
▁distinction 1
гер 1
▁rust 1
▁FIFA 1
▁Properties 1
^- 1
▁экс 1
▁Stanis 1
▁Ajax 1
escape 1
▁consp 1
▁Chen 1
▁Naval 1
Bit 1
▁bât 1
скими 1
drive 1
▁Round 1
photo 1
▁Level 1
▁geg 1
Tom 1
▁Mobile 1
▁Trop 1
Direction 1
isan 1
)^{- 1
▁Setting 1
▁Probably 1
лья 1
▁assets 1
▁atte 1
▁bulk 1
ést 1
▁wing 1
nius 1
▁wins 1
▁lud 1
ushing 1
▁deven 1
ограф 1
burger 1
▁embar 1
FilterChain 1
▁tum 1
▁öss 1
▁nommé 1
▁pir 1
▁luc 1
dbo 1
agues 1
▁alcan 1
ouwen 1
▁Stanley 1
циали 1
▁grown 1
▁preserved 1
▁solar 1
▁Население 1
▁performances 1
▁Cow 1
▁engineering 1
▁scaling 1
atomic 1
endance 1
▁ace 1
ängen 1
Anim 1
phase 1
zburg 1
Old 1
▁servant 1
▁gemeins 1
▁Observ 1
translate 1
▁covering 1
▁están 1
▁problema 1
▁установ 1
▁llev 1
▁czerw 1
éal 1
mez 1
REE 1
ERR 1
тури 1
segu 1
▁profit 1
▁multiplication 1
kommen 1
▁faut 1
▁candidates 1
▁Uri 1
▁Laura 1
▁sap 1
▁висини 1
▁Between 1
fade 1
▁reserved 1
▁involving 1
▁Mare 1
▁Container 1
▁назна 1
▁DEBUG 1
▁hurt 1
▁Polski 1
▁lux 1
CB 1
wach 1
▁период 1
▁Catherine 1
▁ganz 1
uchte 1
▁consumer 1
▁crossed 1
ordered 1
away 1
techn 1
▁subscri 1
▁shortcut 1
▁производ 1
▁simultaneously 1
▁rating 1
▁Kings 1
▁relationships 1
▁Sex 1
▁Tool 1
agh 1
acters 1
logger 1
homme 1
engers 1
▁Ri 1
earance 1
▁appearances 1
Real 1
▁passe 1
iclopedia 1
чко 1
terre 1
▁Ontario 1
▁переда 1
footer 1
archivi 1
ifiz 1
▁Protest 1
▁LIN 1
unnable 1
▁centuries 1
▁Bayer 1
цію 1
овин 1
▁Andrea 1
selection 1
▁calm 1
▁modification 1
▁shortly 1
inaire 1
▁fusion 1
▁feelings 1
PK 1
▁Roberto 1
гне 1
Shared 1
▁mehrere 1
▁Niem 1
omp 1
Env 1
▁Article 1
▁Pok 1
▁VARCHAR 1
▁dil 1
▁afford 1
▁confront 1
owanie 1
▁ministre 1
adesh 1
▁Poly 1
▁Распо 1
▁Gruppe 1
▁Helen 1
▁cc 1
▁portrait 1
bew 1
▁beta 1
▁Wir 1
▁Audio 1
▁(\< 1
riority 1
▁nit 1
▁представи 1
▁Vie 1
▁wür 1
▁Hold 1
▁Sad 1
▁Tochter 1
▁oltre 1
▁Activ 1
▁Jason 1
▁wieku 1
▁regards 1
▁taste 1
agnostic 1
лася 1
▁Self 1
▁apr 1
▁Deep 1
scop 1
Activ 1
▁typedef 1
ContentView 1
compiler 1
▁Roth 1
xc 1
зик 1
▁largo 1
▁Rena 1
heiten 1
▁platforms 1
ulla 1
▁glance 1
▁mascul 1
▁mex 1
▁Jorge 1
▁funcion 1
choose 1
▁reviews 1
▁Alban 1
▁Glo 1
▁Species 1
▁Fame 1
▁Roll 1
▁Puerto 1
▁\) 1
ymnas 1
environ 1
▁iphone 1
▁Wrestling 1
ały 1
▁Indiana 1
Radio 1
VS 1
▁independence 1
тай 1
▁decode 1
White 1
▁journ 1
ículo 1
▁Barb 1
▁Evangel 1
▁Andy 1
▁Welcome 1
▁Device 1
gef 1
▁remembered 1
▁variations 1
▁Adolf 1
itaine 1
▁надморској 1
▁steam 1
▁concerns 1
▁`| 1
▁био 1
тельства 1
▁quattro 1
extend 1
▁trabajo 1
enberg 1
▁scenarios 1
ânt 1
▁kommt 1
▁domestic 1
▁Basketball 1
▁Cooper 1
sock 1
держа 1
={\ 1
▁inici 1
▁Phill 1
▁генерал 1
archiviato 1
ън 1
Rob 1
▁tong 1
▁characteristics 1
▁amaz 1
▁Mode 1
▁inaugur 1
wehr 1
rant 1
ionali 1
▁Mother 1
Ma 1
équ 1
▁Kelly 1
cile 1
▁besteht 1
▁estimates 1
ruguay 1
▁Ans 1
Mad 1
▁нав 1
▁données 1
▁tropical 1
▁Several 1
elter 1
▁Pho 1
kem 1
▁Customer 1
▁складі 1
▁courses 1
Platform 1
navbar 1
learning 1
▁Swedish 1
▁zast 1
▁Lig 1
management 1
▁lod 1
uffle 1
Texture 1
arga 1
átum 1
▁DDR 1
нії 1
▁Société 1
▁domains 1
▁permitted 1
▁externe 1
▁quelque 1
vt 1
yman 1
▁Ward 1
▁agli 1
▁andra 1
Snapshot 1
▁må 1
▁yeah 1
дена 1
ępu 1
askell 1
▁République 1
inject 1
▁'; 1
änn 1
▁zelf 1
▁Entwicklung 1
ária 1
onomy 1
▁svil 1
iese 1
▁conser 1
▁nim 1
▁rész 1
▁Итали 1
▁partici 1
▁Lion 1
sr 1
always 1
▁Владимир 1
ческие 1
[, 1
▁Definition 1
nant 1
oem 1
Ids 1
▁вне 1
▁[...] 1
▁направ 1
▁GO 1
▁års 1
▁után 1
▁outros 1
▁región 1
▁Mong 1
▁filme 1
▁triple 1
▁spons 1
Develop 1
▁outcome 1
▁Bible 1
▁имени 1
Canvas 1
пута 1
curr 1
ások 1
){\ 1
ningar 1
`; 1
▁Flash 1
:# 1
must 1
cpu 1
▁formats 1
Har 1
▁episodio 1
▁Rosa 1
▁dès 1
emit 1
riteria 1
Annotation 1
Flag 1
gmail 1
▁Normal 1
ollary 1
▁foss 1
▁concurrent 1
▁crashes 1
▁виде 1
▁Minor 1
▁Sit 1
▁SN 1
▁scar 1
▁femin 1
▁specification 1
soap 1
▁operate 1
▁principalmente 1
▁aust 1
ibile 1
itime 1
лежа 1
iframe 1
▁concepts 1
▁tack 1
▁viss 1
▁carbon 1
tery 1
▁naming 1
▁Orts 1
idente 1
▁Capit 1
▁expr 1
▁насељу 1
▁Selected 1
▁hinter 1
▁iframe 1
▁zb 1
indexPath 1
coll 1
▁wrześ 1
▁acht 1
▁gradually 1
▁чу 1
зей 1
haft 1
▁tran 1
▁laquelle 1
ytics 1
IDE 1
▁pygame 1
▁Package 1
▁className 1
Bal 1
perl 1
тина 1
Occ 1
▁infrastr 1
▁Champions 1
▁classic 1
▁Raw 1
▁partially 1
▁Ted 1
▁stolet 1
rained 1
WHERE 1
▁vall 1
▁Julia 1
zat 1
▁surrounded 1
SEE 1
▁walking 1
Bad 1
FOR 1
contre 1
▁Palest 1
ático 1
▁engineer 1
▁partners 1
▁Jews 1
ilers 1
▁cerem 1
▁interactions 1
acu 1
sty 1
▁Princess 1
sharp 1
▁Singles 1
▁їх 1
chez 1
Receiver 1
▁patients 1
stringify 1
▁competed 1
bey 1
$; 1
▁Bd 1
hadoop 1
▁División 1
öld 1
▁restricted 1
▁commander 1
▁Highway 1
▁Česk 1
▁myth 1
чан 1
raham 1
▁enqu 1
▁pog 1
▁comuna 1
▁println 1
▁круп 1
▁depois 1
▁seats 1
▁neighb 1
циона 1
agine 1
▁clothes 1
▁Prior 1
Brain 1
FFFF 1
':' 1
features 1
▁filesystem 1
▁singles 1
▁Melbourne 1
▁destruction 1
▁Lyon 1
▁Insel 1
Nav 1
▁Replace 1
▁lé 1
Who 1
▁Estad 1
▁dimensional 1
▁öff 1
▁grands 1
джа 1
plane 1
ності 1
▁Origin 1
WI 1
änner 1
▁Cry 1
ITION 1
▁född 1
▁cultura 1
▁Rank 1
▁vuel 1
▁zag 1
▁Maxim 1
ону 1
())) 1
Raw 1
kirche 1
▁además 1
▁tie 1
▁Style 1
сков 1
istant 1
olph 1
▁Zür 1
▁Info 1
DOM 1
usc 1
nahm 1
▁Федера 1
▁Fot 1
▁specifying 1
▁titolo 1
▁Boys 1
iech 1
Place 1
▁Hoff 1
▁cached 1
валь 1
isher 1
rolling 1
opens 1
▁hr 1
------ 1
▁maggior 1
▁transactions 1
▁criminal 1
▁retre 1
▁Campbell 1
)): 1
▁ned 1
Pager 1
▁Hero 1
(__ 1
▁uncle 1
▁reaches 1
arto 1
▁hello 1
Preferences 1
▁затем 1
Named 1
▁readers 1
хі 1
kern 1
▁упо 1
кин 1
▁lav 1
▁nob 1
▁secre 1
▁ListView 1
вания 1
▁Mayor 1
borough 1
▁filosof 1
нення 1
фри 1
▁patr 1
FM 1
▁acid 1
▁Salvador 1
▁abb 1
▁Graham 1
policy 1
negative 1
ńskiego 1
▁Heimat 1
▁dazu 1
▁mely 1
▁ride 1
▁duties 1
overy 1
▁Proposition 1
▁Paolo 1
/' 1
▁Mau 1
imenti 1
Saint 1
father 1
▁equilib 1
phony 1
▁clas 1
▁отли 1
▁Buffered 1
rek 1
▁mitt 1
▁Hur 1
▁Harvard 1
▁demonstrate 1
uario 1
▁dolor 1
▁rejected 1
▁Müller 1
▁nac 1
▁Belle 1
▁gathered 1
nr 1
frika 1
öll 1
▁chemical 1
nig 1
▁calc 1
▁DEFAULT 1
▁philosophy 1
▁Laravel 1
▁alignment 1
EV 1
eor 1
▁dzie 1
▁mest 1
▁Io 1
CRE 1
зви 1
▁Medic 1
▁nä 1
▁zab 1
▁Slov 1
utlich 1
▁amplit 1
▁Frankreich 1
▁кіль 1
IND 1
execution 1
▁Karriere 1
dostęp 1
▁réal 1
engo 1
▁severe 1
зма 1
▁турни 1
▁Carter 1
▁Robinson 1
getElementsBy 1
▁prototype 1
▁japon 1
führung 1
▁consegu 1
▁studi 1
▁lire 1
▁schließ 1
▁Buff 1
▁redund 1
▁ern 1
▁myster 1
▁proprio 1
ateful 1
▁Parent 1
▁ladies 1
rack 1
тика 1
enburg 1
▁качестве 1
▁EF 1
▁stam 1
▁nueva 1
▁filtered 1
reten 1
▁Ian 1
▁Matthew 1
kih 1
▁ő 1
▁компози 1
▁forever 1
oires 1
:\\ 1
▁études 1
▁soup 1
▁pleased 1
)}( 1
▁Stop 1
Setter 1
▁Help 1
▁bars 1
▁ERR 1
▁(? 1
▁poetry 1
▁Util 1
AK 1
▁fick 1
▁IM 1
▁proud 1
носи 1
▁muerte 1
▁Palmarès 1
▁Nas 1
щих 1
▁quer 1
▁apenas 1
][' 1
▁Konst 1
пон 1
▁Schiff 1
▁mp 1
▁благо 1
fram 1
▁household 1
▁tract 1
encoding 1
▁undert 1
▁Aug 1
ован 1
▁Arten 1
▁invoked 1
▁dynast 1
▁fleet 1
чество 1
▁Murray 1
▁gut 1
elihood 1
▁SSH 1
ответ 1
▁personally 1
прия 1
▁financi 1
▁Thompson 1
alu 1
identity 1
▁Grab 1
addle 1
Ét 1
▁Tob 1
▁verlor 1
▁Sainte 1
▁dop 1
▁вере 1
___ 1
▁promotion 1
▁-= 1
▁отде 1
▁ambigu 1
ORDER 1
▁Communic 1
▁imply 1
oned 1
cluding 1
▁collision 1
▁fragments 1
scription 1
▁'{ 1
лях 1
▁hans 1
ус 1
wire 1
namespace 1
▁sword 1
refresh 1
▁kwam 1
zs 1
commons 1
▁cosa 1
▁regime 1
grep 1
▁dioc 1
▁Contact 1
▁estas 1
▁Stewart 1
▁viele 1
това 1
▁Ran 1
annes 1
iday 1
▁snapshot 1
orrow 1
▁zač 1
▁участие 1
▁promised 1
Assembly 1
▁championship 1
▁Define 1
▁eren 1
▁ново 1
▁thinks 1
Age 1
▁gev 1
varchar 1
ività 1
compos 1
▁Mutter 1
CONT 1
armée 1
agnet 1
▁Brow 1
.— 1
▁Television 1
▁Для 1
▁vm 1
▁ordin 1
▁Михай 1
▁aproxim 1
')-> 1
▁zoo 1
ippi 1
▁sino 1
▁Québec 1
rages 1
äck 1
eing 1
arlo 1
pios 1
▁Chan 1
▁elli 1
▁incons 1
gestellt 1
ppers 1
Jean 1
anstalt 1
▁Dance 1
▁toen 1
▁decis 1
▁Резу 1
▁officially 1
ätze 1
▁доро 1
▁enumer 1
▁troisième 1
typ 1
offs 1
боль 1
odn 1
▁Zar 1
▁друго 1
quia 1
▁Nicolas 1
пису 1
▁mob 1
paces 1
нього 1
Alg 1
éroï 1
Errors 1
▁гре 1
▁женщи 1
inch 1
▁Korean 1
▁Apost 1
▁Liver 1
▁elementary 1
▁DI 1
виси 1
▁soil 1
▁DLL 1
▁risp 1
▁Shakespe 1
▁Gaussian 1
▁Kurt 1
Vertex 1
ebol 1
organisation 1
ären 1
▁YES 1
CUR 1
▁началь 1
▁постро 1
▁Luigi 1
▁caching 1
preventDefault 1
amd 1
▁Vit 1
subst 1
▁строи 1
▁Campion 1
chr 1
фере 1
▁Список 1
NF 1
▁cím 1
▁hé 1
rebbe 1
ocy 1
below 1
▁bylo 1
▁Уи 1
▁\({\ 1
▁`: 1
giore 1
San 1
▁Gate 1
▁вс 1
▁olimp 1
▁Matrix 1
▁hearing 1
rii 1
tfrac 1
▁allemand 1
▁Vue 1
лн 1
▁compiling 1
▁Ens 1
▁investigation 1
▁Ax 1
▁chars 1
▁targets 1
▁loud 1
usement 1
▁Nether 1
commerce 1
IGHT 1
ocoa 1
ifecycle 1
▁Leo 1
priv 1
▁goods 1
adamente 1
Austral 1
▁reboot 1
Gest 1
▁representations 1
ceu 1
▁doctrine 1
cers 1
▁Krak 1
▁advoc 1
▁squadra 1
▁arbeitete 1
üst 1
▁pill 1
Answer 1
▁квіт 1
▁Wa 1
umann 1
▁Dynam 1
Famil 1
▁tennis 1
▁Engineering 1
▁circles 1
▁Maryland 1
▁besta 1
▁bases 1
▁znajdu 1
ктора 1
▁arrest 1
лер 1
▁Gia 1
▁remarkable 1
▁могу 1
▁Supreme 1
▁`% 1
dor 1
▁aujourd 1
▁wis 1
WIDTH 1
▁misma 1
▁fluid 1
▁petite 1
▁Tow 1
Registry 1
emed 1
▁Wisconsin 1
▁Racing 1
▁registration 1
/% 1
third 1
▁monuments 1
чей 1
▁jet 1
▁Urban 1
álva 1
▁milieu 1
▁possess 1
▁germ 1
dependencies 1
▁enemies 1
▁samen 1
▁Werner 1
▁hizo 1
▁td 1
▁yesterday 1
▁Ад 1
▁hasn 1
cellation 1
ování 1
lika 1
Week 1
▁Ing 1
▁Email 1
▁mètres 1
▁OCLC 1
▁amongst 1
▁splend 1
fur 1
antics 1
▁XXX 1
▁группы 1
lach 1
▁cousin 1
▁invariant 1
ђу 1
▁Beispiel 1
▁harder 1
▁bell 1
▁orch 1
tb 1
Footnote 1
regon 1
Martin 1
▁incon 1
▁attacked 1
_{- 1
▁Tras 1
party 1
iteit 1
▁saint 1
rások 1
▁containers 1
Mo 1
▁Sn 1
quantity 1
▁ras 1
▁Canal 1
ccion 1
uvo 1
▁idx 1
typename 1
▁Rugby 1
▁Seems 1
▁transmit 1
▁Präsident 1
зне 1
▁Baker 1
inth 1
▁több 1
verein 1
▁especie 1
,( 1
▁téc 1
▁WITH 1
▁unos 1
▁politics 1
createElement 1
▁stats 1
▁Tennessee 1
▁Bedeutung 1
▁Screen 1
▁Straße 1
anze 1
▁partly 1
manuel 1
olation 1
horizontal 1
érieure 1
ampio 1
▁струк 1
Weight 1
Land 1
poly 1
▁Dak 1
▁Assume 1
".$ 1
▁casi 1
▁gross 1
▁entertain 1
▁década 1
'.$ 1
encer 1
▁guaranteed 1
]$. 1
лися 1
▁acceptable 1
raise 1
irus 1
weit 1
▁Ана 1
▁hills 1
ipage 1
BIT 1
▁nucle 1
▁utilis 1
CAA 1
ènes 1
▁Schweiz 1
▁AA 1
ninger 1
▁bands 1
▁tender 1
som 1
Warning 1
▁Bischof 1
▁Arc 1
▁Woman 1
▁transmission 1
чни 1
istre 1
BY 1
▁SI 1
▁Пар 1
▁}). 1
▁presenta 1
▁René 1
▁happiness 1
▁Punk 1
cols 1
▁Desde 1
рёх 1
▁мона 1
▁scratch 1
▁tcp 1
êtes 1
itated 1
▁diferen 1
geh 1
nahmen 1
Пе 1
cki 1
▁Teatro 1
▁Remember 1
▁fright 1
▁Yam 1
western 1
leted 1
▁встре 1
▁település 1
зин 1
▁Quant 1
▁supre 1
ája 1
дія 1
▁carrera 1
kret 1
para 1
▁SUM 1
▁pit 1
źdz 1
éo 1
рення 1
▁Chor 1
▁voix 1
▁executive 1
▁allerdings 1
Maybe 1
▁день 1
▁flying 1
▁parliament 1
ждан 1
▁fram 1
▁жовт 1
▁ugly 1
▁буду 1
igny 1
\|_{ 1
▁bitter 1
sce 1
▁pole 1
Verlag 1
▁totalité 1
▁foundation 1
jt 1
▁slice 1
ifique 1
▁integrate 1
strij 1
▁asympt 1
▁ему 1
▁perturb 1
▁Flow 1
jboss 1
RIG 1
▁Aless 1
XXX 1
▁summ 1
sqlite 1
▁cheer 1
prob 1
▁GPU 1
ził 1
(*) 1
▁induct 1
RAY 1
blatt 1
questa 1
oru 1
▁Inside 1
▁McG 1
▁Nep 1
мп 1
▁inve 1
▁Animal 1
▁sob 1
ított 1
loyment 1
▁bund 1
Station 1
▁BEGIN 1
▁partiellement 1
igg 1
estore 1
▁coinc 1
▁Sommer 1
▁md 1
▁locked 1
mathchar 1
arma 1
pent 1
arium 1
▁ears 1
▁Songs 1
▁similarly 1
▁literally 1
▁inches 1
▁affection 1
lp 1
▁concluded 1
▁муніципалі 1
▁памя 1
estaur 1
▁Josh 1
▁Fritz 1
DBC 1
дён 1
posa 1
▁golden 1
▁pc 1
▁comte 1
▁Ziel 1
▁présente 1
marks 1
igneur 1
▁Drive 1
▁neglect 1
▁rozp 1
▁Five 1
spaces 1
▁Medi 1
▁existed 1
▁była 1
джи 1
▁frente 1
тник 1
odd 1
▁answering 1
bian 1
▁Eugen 1
▁Publications 1
▁Dia 1
lá 1
▁'_ 1
▁recuper 1
ому 1
▁Append 1
obar 1
▁employees 1
▁compens 1
emetery 1
▁элект 1
MON 1
olin 1
▁historic 1
his 1
ąd 1
nm 1
▁Goth 1
▁stress 1
▁partecip 1
▁Aw 1
▁sar 1
▁hu 1
▁matplotlib 1
▁Myst 1
();` 1
schein 1
Longrightarrow 1
▁ря 1
▁Isra 1
[^ 1
nou 1
▁synd 1
working 1
▁Nation 1
▁Pent 1
▁klass 1
▁applicable 1
▁Diam 1
▁brasile 1
▁pac 1
▁Height 1
Put 1
▁intro 1
▁unusual 1
nas 1
▁Gebäude 1
▁beam 1
▁Rect 1
▁Primera 1
▁haut 1
▁trait 1
prüft 1
inación 1
▁configurations 1
▁gilt 1
▁territoire 1
hez 1
▁alte 1
relative 1
Excel 1
▁Wright 1
GV 1
поли 1
Quant 1
▁gauge 1
▁multiply 1
ASS 1
ственно 1
ану 1
▁jeden 1
▁literary 1
▁Dro 1
▁advise 1
itzen 1
▁disag 1
website 1
▁дія 1
▁observer 1
▁január 1
vě 1
kup 1
▁Ses 1
▁wojew 1
▁stages 1
▁времени 1
łuż 1
нос 1
Download 1
ipo 1
▁graf 1
▁робо 1
▁Nikol 1
▁fic 1
▁joining 1
▁diversos 1
▁LIKE 1
▁Fitz 1
▁dimin 1
▁distrib 1
Sam 1
koz 1
▁alphabet 1
oser 1
OUR 1
uka 1
кая 1
▁steel 1
▁`-- 1
▁tener 1
marker 1
▁Heaven 1
newcommand 1
▁prisoners 1
▁Knight 1
▁presents 1
▁questi 1
▁trains 1
opera 1
▁Linear 1
▁ME 1
▁Buc 1
Leg 1
▁agua 1
▁Griff 1
olg 1
dst 1
<unk19> 1
▁persones 1
Mal 1
бере 1
folge 1
▁acab 1
ctu 1
ptic 1
▁Navigation 1
Russ 1
галь 1
▁Ful 1
▁має 1
чная 1
wner 1
contra 1
▁joueur 1
▁Jess 1
▁renew 1
▁lap 1
▁casting 1
gal 1
▁tématu 1
▁называ 1
зах 1
чне 1
)-\ 1
▁часто 1
}$- 1
▁licz 1
▁emot 1
harm 1
▁occasionally 1
▁horror 1
east 1
▁printer 1
aran 1
▁Mississ 1
follow 1
▁Barry 1
▁investigate 1
gow 1
▁Americans 1
Since 1
▁відо 1
▁reun 1
osci 1
▁Chapter 1
▁bay 1
роме 1
ethe 1
édie 1
comot 1
▁miejscowo 1
▁studierte 1
ouvert 1
▁кур 1
▁DESC 1
▁touched 1
▁Jerry 1
uese 1
лище 1
authentication 1
▁colle 1
heart 1
▁regiment 1
cribed 1
▁Боль 1
▁проис 1
ceae 1
▁masses 1
▁scrolling 1
usto 1
SW 1
ovat 1
▁grâce 1
▁Архив 1
▁Север 1
avait 1
▁Marshall 1
▁HashMap 1
acon 1
ücken 1
[]) 1
▁evangel 1
etzung 1
ttemberg 1
sters 1
TM 1
▁литера 1
quot 1
Pred 1
▁werk 1
▁haber 1
lava 1
vous 1
▁Late 1
cycle 1
тирова 1
▁проду 1
▁populations 1
▁Yan 1
Prefix 1
actéristiques 1
+' 1
()`]( 1
▁Ль 1
филь 1
▁жизни 1
ftp 1
▁всех 1
▁gdzie 1
▁videa 1
oauth 1
▁pid 1
ům 1
▁pesso 1
▁tracking 1
izin 1
▁Morris 1
щий 1
▁Provinz 1
▁Mitte 1
▁artificial 1
brázky 1
▁дости 1
▁restored 1
▁communicate 1
agit 1
Recogn 1
▁lon 1
▁заня 1
▁Argument 1
flush 1
мана 1
seconds 1
UC 1
▁Ruth 1
▁tub 1
▁Bret 1
▁Pere 1
▁responsibility 1
ńczy 1
▁environments 1
kee 1
▁groot 1
▁painted 1
▁Éditions 1
cpy 1
árt 1
lichkeit 1
arda 1
Batch 1
▁Leopold 1
reason 1
noreferrer 1
sens 1
▁rocks 1
▁Hitler 1
лат 1
▁quoted 1
▁колле 1
▁уров 1
bag 1
.") 1
▁ML 1
▁komt 1
▁[_ 1
▁spectral 1
edo 1
▁insieme 1
▁suffering 1
slider 1
▁Kennedy 1
olate 1
▁Patri 1
зии 1
OH 1
▁теа 1
▁права 1
мах 1
rewrite 1
▁Einsatz 1
external 1
holds 1
▁Places 1
atype 1
▁vulner 1
▁abandoned 1
Origin 1
▁maximal 1
AAAA 1
▁Baseball 1
▁Close 1
▁painter 1
▁assigning 1
NB 1
blast 1
▁Künstler 1
)]( 1
fach 1
▁Constantin 1
okes 1
▁nobody 1
▁subtract 1
▁fosse 1
▁certific 1
▁muse 1
/), 1
▁Profil 1
▁proxim 1
▁Jerusalem 1
▁simplicity 1
▁wsz 1
NUMBER 1
uttavia 1
UITableView 1
ichter 1
жан 1
▁Lav 1
itchen 1
▁Чем 1
Tu 1
▁geom 1
▁zvuky 1
▁Survey 1
ANCE 1
▁encrypted 1
prof 1
▁dare 1
▁Loren 1
тв 1
▁Алек 1
▁computers 1
▁expectation 1
▁substantial 1
▁Дми 1
▁`{ 1
▁дра 1
ubble 1
▁performs 1
▁Krieg 1
▁incoming 1
▁Classification 1
WebView 1
▁episodes 1
apper 1
äufig 1
▁giov 1
▁Depart 1
бора 1
edly 1
ospod 1
▁ptr 1
▁dátum 1
▁estimation 1
icole 1
▁---- 1
▁princes 1
HEAD 1
▁diffusion 1
▁drie 1
▁Ada 1
нице 1
nginx 1
shal 1
▁februari 1
▁Tat 1
looking 1
kund 1
▁Dean 1
mongodb 1
вших 1
▁Aur 1
▁Flora 1
▁Studios 1
ције 1
eil 1
Install 1
▁franch 1
▁HMS 1
▁practices 1
lej 1
dale 1
▁poste 1
▁Hels 1
▁reliable 1
ździer 1
▁verse 1
ermeister 1
▁quit 1
ético 1
ilis 1
edor 1
▁Cultural 1
дже 1
▁liked 1
▁mongodb 1
▁Broadway 1
▁IR 1
eszt 1
hov 1
▁míst 1
reiche 1
▁kB 1
стом 1
▁SQLite 1
▁torneo 1
\. 1
Ord 1
▁Administration 1
▁зда 1
▁Hinter 1
▁Via 1
Decimal 1
orious 1
▁nécessaire 1
wx 1
▁tej 1
▁tema 1
Obrázky 1
рите 1
▁builds 1
▁laten 1
▁гг 1
Visibility 1
läu 1
▁sechs 1
▁луч 1
cera 1
Could 1
▁traject 1
}}^{ 1
▁Japon 1
another 1
IK 1
▁belonging 1
▁facilities 1
▁Daily 1
▁dece 1
intro 1
▁случа 1
Namespace 1
▁Bak 1
locale 1
UG 1
=${ 1
▁compañ 1
jąc 1
▁arithmetic 1
forum 1
▁porta 1
onk 1
▁gender 1
▁expects 1
бка 1
▁nak 1
▁Grace 1
▁stro 1
ividual 1
▁COM 1
▁Farm 1
▁canton 1
тому 1
javax 1
сей 1
▁briefly 1
Face 1
rotate 1
constant 1
▁gallery 1
astro 1
allery 1
▁DJ 1
charge 1
ходить 1
Cent 1
\", 1
▁donna 1
arca 1
lade 1
zin 1
▁Ned 1
▁hosting 1
idor 1
itative 1
igs 1
▁пря 1
▁ticket 1
▁studying 1
▁designer 1
lapsed 1
▁laat 1
▁dix 1
▁integrated 1
▁informed 1
▁behave 1
▁labour 1
estellt 1
calendar 1
▁killing 1
▁twitter 1
iae 1
▁historique 1
DEFAULT 1
iała 1
▁theoretical 1
▁unders 1
ляет 1
atan 1
▁surname 1
▁intercept 1
гласно 1
▁општини 1
▁tired 1
▁Beth 1
▁административ 1
Li 1
▁Тур 1
▁Scanner 1
▁Stern 1
▁вместе 1
▁reporting 1
▁sull 1
цией 1
berts 1
ogonal 1
ők 1
▁ipsum 1
▁seulement 1
▁Seiten 1
wordpress 1
▁featuring 1
istischen 1
jub 1
▁étr 1
▁tea 1
▁adapted 1
▁scales 1
▁nan 1
getValue 1
▁Blues 1
acles 1
▁stati 1
▁entitled 1
▁Ralph 1
gravity 1
▁entrepr 1
któber 1
limat 1
lis 1
Demo 1
relation 1
▁nep 1
prowad 1
itis 1
▁pup 1
nehmer 1
▁disappoint 1
▁etwas 1
annon 1
▁approved 1
▁clever 1
Loading 1
▁verz 1
resse 1
▁inspir 1
▁sampling 1
▁Bek 1
})$. 1
▁грома 1
▁specie 1
▁repub 1
▁loader 1
▁erf 1
▁shoulder 1
rais 1
▁мате 1
▁Month 1
Scene 1
▁blocking 1
▁ocean 1
geben 1
▁Kilometer 1
▁bedeut 1
▁Mix 1
fmt 1
▁Norweg 1
▁IDs 1
parallel 1
▁anticip 1
▁revis 1
хан 1
▁свет 1
CASE 1
▁führt 1
▁atomic 1
▁darkness 1
▁Fußballspieler 1
▁Жи 1
quisition 1
▁Sieg 1
Circ 1
▁cientí 1
nelle 1
SHA 1
▁urb 1
▁ksi 1
leqslant 1
▁фрон 1
▁defect 1
▁rá 1
▁stronger 1
▁pł 1
▁communities 1
нина 1
enas 1
iennent 1
▁safely 1
▁тя 1
▁benchmark 1
▁Braun 1
methods 1
argument 1
vos 1
obox 1
рови 1
▁recherche 1
mn 1
▁brings 1
machine 1
CESS 1
hosts 1
▁NY 1
Autow 1
▁современ 1
▁Gary 1
▁sensor 1
▁documented 1
▁prendre 1
▁peer 1
enix 1
hai 1
arbe 1
цент 1
_( 1
▁URI 1
ева 1
▁Regie 1
▁Monument 1
▁onderwerp 1
Bag 1
tit 1
▁stir 1
▁nerv 1
сторія 1
▁sov 1
▁writers 1
▁sorts 1
absolute 1
▁difficulties 1
▁parlament 1
▁IEnumerable 1
▁dissol 1
▁CHECK 1
arina 1
inburgh 1
DM 1
▁eind 1
▁budget 1
▁certains 1
▁första 1
anja 1
▁годов 1
▁тек 1
▁Duch 1
gui 1
▁Teams 1
▁многи 1
Marie 1
Integr 1
ThreadPool 1
rust 1
ík 1
%" 1
enf 1
spl 1
▁begun 1
lou 1
▁RewriteRule 1
tuple 1
aneous 1
▁marine 1
attan 1
ikal 1
▁graduated 1
illé 1
▁прове 1
▁Роз 1
<unk20> 1
▁Pfarr 1
▁nivel 1
▁працю 1
music 1
▁setTimeout 1
ERS 1
▁Erik 1
pit 1
▁Хро 1
▁pił 1
▁peri 1
док 1
uszt 1
▁Bear 1
ClassName 1
▁Parlament 1
▁aix 1
▁invited 1
▁PATH 1
xter 1
▁Race 1
▁hecho 1
▁Tower 1
▁utf 1
actly 1
▁буде 1
▁angles 1
няя 1
ouvelles 1
▁climate 1
▁singing 1
▁navigate 1
>'; 1
adows 1
▁leta 1
▁Sitz 1
▁partitions 1
▁dock 1
▁ży 1
▁allocate 1
▁benefits 1
▁nieder 1
xpath 1
meck 1
älle 1
▁coupling 1
жил 1
ForKey 1
argent 1
clou 1
▁instruments 1
▁enthus 1
▁még 1
▁Пав 1
▁Rach 1
----- 1
▁APIs 1
▁Vier 1
Cmd 1
itore 1
▁Cuba 1
▁dátummal 1
▁embedding 1
stdio 1
▁Gilbert 1
▁geprüft 1
▁stating 1
▁triggers 1
+= 1
▁spécial 1
▁deliber 1
мин 1
Produ 1
▁Stati 1
▁zus 1
ktionen 1
Dispatcher 1
idal 1
▁LP 1
optera 1
▁estar 1
▁значи 1
смо 1
ouses 1
engono 1
▁WPF 1
publish 1
▁teor 1
elif 1
▁erg 1
▁separation 1
Pan 1
▁Orchestra 1
Peter 1
bounds 1
▁Shakespeare 1
▁cantante 1
▁demi 1
▁Popular 1
фр 1
arring 1
цин 1
▁Ис 1
von 1
▁substitution 1
▁línea 1
\}$. 1
como 1
▁важ 1
wagen 1
▁rarely 1
▁periods 1
glob 1
▁Frid 1
▁Terr 1
▁Release 1
Brainz 1
▁граф 1
DIS 1
compatible 1
▁poč 1
LIN 1
▁Källor 1
▁Arizona 1
ppy 1
Seq 1
▁Ain 1
▁Tourn 1
brow 1
▁Kör 1
▁ash 1
ogeneous 1
▁dialect 1
▁насеља 1
mysqli 1
цов 1
▁flor 1
▁фло 1
IAB 1
▁Within 1
^( 1
▁bois 1
▁tank 1
▁affili 1
▁hijo 1
▁Kate 1
▁Verl 1
▁Miami 1
▁typescript 1
њу 1
▁Vern 1
▁висо 1
iemann 1
▁coverage 1
brie 1
▁Starting 1
numpy 1
▁Jenkins 1
▁két 1
▁grup 1
▁Scient 1
▁interrupt 1
▁blob 1
ugel 1
▁Orth 1
abama 1
▁Bapt 1
ownik 1
▁быть 1
▁Julius 1
▁През 1
▁substitute 1
supported 1
chy 1
egyzetek 1
▁Performance 1
lessly 1
Constructor 1
▁extending 1
▁Muslim 1
Overflow 1
▁Jenn 1
▁produz 1
мії 1
▁países 1
▁eux 1
▁fate 1
ologe 1
ук 1
▁wobei 1
▁Sachsen 1
▁сайт 1
Models 1
▁Fast 1
besondere 1
▁FR 1
▁acon 1
▁Denkmal 1
▁anch 1
▁público 1
▁Tas 1
▁cand 1
▁paździer 1
▁Мон 1
▁versus 1
rut 1
GT 1
▁inserting 1
▁canad 1
єм 1
▁Metro 1
▁Herzog 1
Ignore 1
▁decrease 1
▁пун 1
▁Fischer 1
▁Mall 1
▁nörd 1
iostream 1
▁Luxemb 1
payload 1
▁Zeitung 1
▁modifying 1
▁Cher 1
▁Luci 1
nx 1
▁loose 1
▁topics 1
▁varied 1
▁pg 1
ajes 1
umm 1
Views 1
▁Beau 1
MAP 1
ipeline 1
▁Interest 1
arith 1
▁según 1
▁Gemeins 1
▁Attribute 1
community 1
▁центр 1
▁kilometer 1
▁économ 1
laration 1
▁къ 1
▁carriage 1
▁Lane 1
▁необ 1
kur 1
▁AF 1
INTER 1
))$ 1
▁beide 1
destination 1
▁fonts 1
appendChild 1
▁MAR 1
▁gay 1
mil 1
lesh 1
èt 1
▁Wang 1
▁Years 1
▁Symbol 1
Live 1
quency 1
▁Users 1
▁Unicode 1
▁Sau 1
▁tons 1
▁Ні 1
▁краї 1
AXI 1
▁Pick 1
AI 1
▁hath 1
▁ainda 1
▁papa 1
▁Censo 1
▁Bald 1
▁Насеље 1
▁simulations 1
▁jaren 1
▁inherited 1
▁той 1
▁feels 1
ression 1
▁október 1
bid 1
ási 1
▁muss 1
ventory 1
▁meist 1
▁bore 1
▁slider 1
дели 1
\; 1
▁extracted 1
кур 1
Edge 1
▁perf 1
▁Brigade 1
▁град 1
ienie 1
▁Norden 1
▁cancer 1
"/ 1
Cur 1
▁Сере 1
▁liquid 1
structure 1
▁choosing 1
▁Perl 1
Side 1
üs 1
ритор 1
▁kost 1
▁packets 1
▁которого 1
▁Comun 1
▁fingers 1
ográfica 1
>: 1
▁championnat 1
▁blieb 1
▁Situ 1
▁suic 1
andis 1
Fre 1
▁Conc 1
▁republic 1
▁armed 1
▁hell 1
▁hög 1
ragma 1
▁ense 1
▁acres 1
▁Від 1
▁Reform 1
MainActivity 1
keeper 1
erb 1
▁monaster 1
subsubsection 1
▁Див 1
▁creature 1
▁indicating 1
▁urls 1
▁kein 1
образ 1
pick 1
▁Admir 1
▁oldest 1
▁muz 1
▁contradiction 1
▁probabil 1
illiant 1
▁pav 1
▁papel 1
ubs 1
▁жена 1
AML 1
▁recip 1
▁COL 1
added 1
▁clue 1
▁Ukraine 1
▁jelent 1
чень 1
▁mathematics 1
Accept 1
▁сот 1
▁север 1
▁isolated 1
▁поя 1
wür 1
Router 1
CAT 1
rgb 1
▁Lov 1
mutable 1
▁Wes 1
▁Italien 1
Drag 1
enium 1
atting 1
tcp 1
▁erfolgte 1
▁Beit 1
гато 1
▁Systems 1
▁reserve 1
eree 1
▁Пари 1
▁зали 1
▁rent 1
▁sunt 1
▁Girls 1
▁Ernest 1
▁fits 1
▁oppon 1
▁живело 1
▁avaient 1
▁Florence 1
▁числе 1
▁engines 1
Dynamic 1
▁stycznia 1
▁bias 1
▁Exchange 1
дий 1
▁historiques 1
▁Hä 1
hod 1
▁wł 1
schap 1
▁lac 1
▁Foi 1
▁dwell 1
▁Unternehmen 1
URN 1
▁kilometres 1
▁Однако 1
кли 1
▁Sri 1
Groups 1
mind 1
oslov 1
fern 1
egu 1
abeled 1
Fiddle 1
▁Century 1
/- 1
▁Jegyzetek 1
Hen 1
ensemble 1
▁Gut 1
_{{\ 1
▁ranking 1
+$ 1
ала 1
▁#{ 1
imientos 1
achim 1
rides 1
▁Klaus 1
▁intend 1
▁Kentucky 1
cipe 1
▁Dienst 1
▁situated 1
▁póź 1
▁scrit 1
clip 1
нет 1
tables 1
▁Nied 1
▁McK 1
▁powst 1
▁kunnen 1
▁Evans 1
жды 1
вать 1
uchar 1
▁residents 1
iak 1
▁Resol 1
▁veces 1
▁satisfying 1
INF 1
▁син 1
▁crossing 1
iben 1
▁широ 1
pto 1
ILL 1
▁роль 1
▁aktiv 1
▁обращения 1
Wikispecies 1
▁Höhe 1
cro 1
════ 1
altra 1
▁FILE 1
▁ups 1
▁allocation 1
Michael 1
▁acknowled 1
Linux 1
▁metros 1
tte 1
afen 1
▁xcode 1
▁тради 1
species 1
▁injury 1
▁самы 1
▁lattice 1
Material 1
andenburg 1
▁huvudstaden 1
story 1
▁varying 1
▁követ 1
▁Российской 1
irse 1
▁drum 1
Pressed 1
Lar 1
▁Agu 1
▁weil 1
▁commence 1
▁Según 1
Gesture 1
Shape 1
▁Vors 1
▁succès 1
▁corrected 1
Kar 1
▁cruel 1
▁politico 1
▁Schriftsteller 1
▁risult 1
etu 1
archiv 1
▁género 1
▁Lü 1
▁triumph 1
ORS 1
Lu 1
▁personnel 1
▁Hills 1
asset 1
domin 1
Receive 1
▁Oak 1
▁Kno 1
▁Theory 1
irie 1
owan 1
▁estava 1
▁executes 1
йт 1
ópez 1
поло 1
ética 1
▁название 1
▁converges 1
▁notre 1
▁populated 1
▁movements 1
▁statistical 1
▁Zweiten 1
quin 1
▁importantes 1
▁klein 1
▁Segunda 1
schließend 1
Failure 1
nar 1
dag 1
▁ruolo 1
▁fiction 1
▁использу 1
▁crisis 1
▁Getting 1
,% 1
▁армии 1
▁campus 1
▁footer 1
▁días 1
бан 1
▁liberty 1
▁gh 1
▁chamber 1
▁districts 1
▁excited 1
▁canción 1
tero 1
▁Working 1
▁części 1
льный 1
▁forum 1
▁Ehe 1
▁ката 1
itations 1
Tools 1
achiv 1
▁cres 1
asto 1
▁rever 1
▁nazionale 1
▁doors 1
▁Nancy 1
▁islands 1
Imp 1
▁Chair 1
▁vorm 1
sein 1
▁доку 1
erset 1
▁tätig 1
▁Krit 1
▁пя 1
▁conservation 1
▁Partido 1
minipage 1
Validator 1
▁recovery 1
▁NASA 1
▁breast 1
ilty 1
analy 1
elines 1
▁Saturday 1
emark 1
cej 1
Zero 1
▁Turner 1
secure 1
Exists 1
▁Rick 1
evalu 1
ctrl 1
▁compression 1
▁CURL 1
textcolor 1
)\, 1
longrightarrow 1
▁Fernseh 1
icha 1
▁loi 1
▁Оте 1
▁cave 1
▁dozen 1
▁explaining 1
▁innov 1
▁Nicholas 1
▁diameter 1
▁Marian 1
▁fires 1
▁artifact 1
▁Parker 1
▁Bund 1
▁verte 1
▁talent 1
▁Lucas 1
reverse 1
▁folgenden 1
▁Sah 1
jections 1
▁invece 1
▁costitu 1
▁ssl 1
}}^ 1
▁violent 1
▁spos 1
Rout 1
jdk 1
▁заме 1
▁furent 1
andal 1
Hom 1
▁Senior 1
▁pounds 1
▁Discogs 1
▁зе 1
'}[ 1
▁Napoleon 1
ordinates 1
àn 1
▁kurz 1
▁vere 1
▁reuse 1
▁Ген 1
▁Syst 1
▁disappeared 1
▁Watch 1
bibliothek 1
▁корпу 1
▁Cs 1
▁}` 1
▁rör 1
▁дела 1
VB 1
▁calculus 1
рода 1
▁judgment 1
atile 1
▁longue 1
▁Hus 1
Jac 1
}}) 1
RIPT 1
IABot 1
▁após 1
▁aston 1
Webachiv 1
▁URLs 1
▁coat 1
▁эконо 1
▁lear 1
extensions 1
▁Classic 1
TI 1
▁Tage 1
▁lá 1
▁semb 1
▁développement 1
ISTS 1
▁solves 1
,\, 1
▁чемпі 1
ordinary 1
▁Bav 1
▁muchos 1
Self 1
▁Май 1
▁Diet 1
▁necessity 1
від 1
▁mano 1
▁Ср 1
▁carre 1
▁Camera 1
▁Narod 1
▁Phone 1
▁polym 1
imore 1
isEmpty 1
▁Houston 1
▁Rece 1
▁presentation 1
ниципа 1
▁Db 1
▁confident 1
▁}{ 1
▁bullet 1
▁{}, 1
ANGE 1
▁Notre 1
chin 1
▁Dragon 1
erca 1
iali 1
▁asset 1
[...]
